<unk>	0
<|endoftext|>	0
<|padding|>	0
<|codetestpair|>	0
▁	0
▁▁	0
▁▁▁	0
▁▁▁▁	0
▁▁▁▁▁	0
▁▁▁▁▁▁	0
▁▁▁▁▁▁▁	0
▁▁▁▁▁▁▁▁	0
▁▁▁▁▁▁▁▁▁	0
▁▁▁▁▁▁▁▁▁▁	0
▁▁▁▁▁▁▁▁▁▁▁	0
▁▁▁▁▁▁▁▁▁▁▁▁	0
▁▁▁▁▁▁▁▁▁▁▁▁▁	0
▁▁▁▁▁▁▁▁▁▁▁▁▁▁	0
▁▁▁▁▁▁▁▁▁▁▁▁▁▁▁	0
▁▁▁▁▁▁▁▁▁▁▁▁▁▁▁▁	0
▁▁▁▁▁▁▁▁▁▁▁▁▁▁▁▁▁	0
▁▁▁▁▁▁▁▁▁▁▁▁▁▁▁▁▁▁	0
▁▁▁▁▁▁▁▁▁▁▁▁▁▁▁▁▁▁▁	0
▁▁▁▁▁▁▁▁▁▁▁▁▁▁▁▁▁▁▁▁	0
▁▁▁▁▁▁▁▁▁▁▁▁▁▁▁▁▁▁▁▁▁	0
▁▁▁▁▁▁▁▁▁▁▁▁▁▁▁▁▁▁▁▁▁▁	0
▁▁▁▁▁▁▁▁▁▁▁▁▁▁▁▁▁▁▁▁▁▁▁	0
▁▁▁▁▁▁▁▁▁▁▁▁▁▁▁▁▁▁▁▁▁▁▁▁	0
	0
	0
	0
	0
	0
	0
	0
e	-1.34839
.	-2.74847
_	-3.63406
(	-3.77792
,	-3.99635
=	-4.22094
;	-4.43014
*	-4.43971
)	-4.49046
0	-4.57513
}	-4.78261
{	-4.81367
1	-4.85026
import	-4.85406
2	-4.96317
the	-4.98017
"	-5.01226
:	-5.18341
public	-5.28537
@	-5.40524
-	-5.48266
);	-5.51145
self	-5.57809
()	-5.58887
/	-5.60253
return	-5.63221
'	-5.64804
#	-5.68241
String	-5.82948
s	-5.85154
3	-5.85742
org	-5.87661
if	-5.92742
this	-5.93864
License	-5.94408
in	-5.95926
a	-5.97285
to	-5.99738
[	-5.99813
<	-6.01078
class	-6.03932
of	-6.04382
>	-6.04838
("	-6.05671
is	-6.07824
4	-6.10308
for	-6.10745
new	-6.11693
",	-6.13781
5	-6.14526
):	-6.18286
from	-6.19713
com	-6.2404
*/	-6.24086
();	-6.27118
get	-6.28537
name	-6.33881
+	-6.33901
int	-6.35172
or	-6.42246
def	-6.42414
8	-6.42888
6	-6.43455
void	-6.45014
and	-6.46676
]	-6.50833
final	-6.50837
//	-6.52053
',	-6.52927
x	-6.53164
/**	-6.53403
i	-6.53752
private	-6.53759
package	-6.54325
java	-6.60577
static	-6.60933
file	-6.62095
9	-6.62774
7	-6.70384
data	-6.7054
under	-6.75522
"""	-6.76446
with	-6.79208
not	-6.80095
")	-6.81032
d	-6.81477
n	-6.83372
test	-6.84149
on	-6.8418
id	-6.86126
value	-6.88216
null	-6.90087
");	-6.93375
util	-6.97975
List	-6.98661
type	-6.99869
c	-7.00538
Override	-7.01303
b	-7.02486
f	-7.02587
r	-7.0284
as	-7.05012
by	-7.05983
set	-7.06269
==	-7.06842
model	-7.11891
://	-7.13069
path	-7.14065
m	-7.15105
p	-7.17415
distributed	-7.17592
Test	-7.20047
add	-7.20874
\	-7.22416
('	-7.2388
))	-7.26838
().	-7.28717
v	-7.28924
at	-7.29126
http	-7.29462
None	-7.2992
t	-7.3179
());	-7.32839
may	-7.33443
A	-7.34622
param	-7.35336
),	-7.35911
extends	-7.36488
it	-7.36588
apache	-7.36681
code	-7.38952
list	-7.40124
io	-7.40296
an	-7.41423
The	-7.41482
[]	-7.41748
')	-7.41892
you	-7.46128
OR	-7.46697
size	-7.46697
else	-7.47569
api	-7.48409
':	-7.49119
y	-7.49476
version	-7.5017
copy	-7.50604
str	-7.51682
args	-7.53032
Copyright	-7.54285
Exception	-7.54309
www	-7.5438
that	-7.55471
This	-7.56184
key	-7.56269
use	-7.56445
core	-7.5648
super	-7.56632
See	-7.57227
T	-7.57626
['	-7.5798
j	-7.5801
boolean	-7.58654
True	-7.59868
print	-7.60647
%	-7.61439
/*	-7.61583
software	-7.61769
config	-7.62661
os	-7.63223
Object	-7.63342
result	-7.6335
ANY	-7.64366
OF	-7.65293
throws	-7.65813
out	-7.67063
":	-7.67657
You	-7.67933
Type	-7.68852
C	-7.69521
licenses	-7.70226
be	-7.71268
true	-7.7352
())	-7.73852
user	-7.7431
net	-7.75326
='	-7.76729
Version	-7.77088
init	-7.77397
context	-7.77579
client	-7.77676
));	-7.78017
create	-7.78033
!=	-7.79814
(),	-7.80169
except	-7.80246
w	-7.80361
="	-7.80412
assert	-7.80608
WITHOUT	-7.80746
Public	-7.81498
np	-7.81808
Map	-7.82439
S	-7.82691
annotation	-7.83237
implied	-7.84975
either	-7.85273
message	-7.86043
Apache	-7.86059
default	-7.8653
IS	-7.86574
num	-7.86879
append	-7.8902
time	-7.89311
required	-7.89453
request	-7.90412
all	-7.90822
text	-7.91593
author	-7.91879
Data	-7.92572
input	-7.92601
],	-7.93413
LICENSE	-7.93691
u	-7.93863
false	-7.93869
interface	-7.94062
I	-7.95552
->	-7.96374
General	-7.9647
']	-7.96691
GNU	-7.96996
length	-7.97666
AS	-7.97803
False	-7.98595
Id	-7.98948
link	-7.99135
R	-7.99318
Software	-8.00194
index	-8.0027
object	-8.00303
k	-8.00578
D	-8.01058
dict	-8.01955
language	-8.02098
len	-8.02391
springframework	-8.0257
long	-8.03298
specific	-8.03403
max	-8.04057
log	-8.04131
WARRANTIES	-8.04219
main	-8.04278
l	-8.04858
{@	-8.05479
url	-8.06929
common	-8.0693
System	-8.07053
info	-8.07666
o	-8.07813
try	-8.07876
format	-8.08216
can	-8.08825
Integer	-8.09385
output	-8.09812
KIND	-8.10684
permissions	-8.10777
L	-8.10813
protected	-8.10878
File	-8.11068
Licensed	-8.11472
obtain	-8.1229
response	-8.13571
source	-8.13597
are	-8.13836
will	-8.13863
`	-8.14109
["	-8.14169
compliance	-8.14488
models	-8.14622
Name	-8.15121
base	-8.15132
F	-8.15299
__(	-8.15328
Service	-8.15709
applicable	-8.1606
express	-8.16353
limitations	-8.16394
governing	-8.1651
event	-8.16811
writing	-8.16872
law	-8.17096
BASIS	-8.18388
CONDITIONS	-8.18556
Unless	-8.18662
item	-8.18789
map	-8.19
agreed	-8.1926
ID	-8.19445
node	-8.19525
";	-8.19535
start	-8.20751
json	-8.21166
</	-8.21637
javax	-8.21988
android	-8.2217
X	-8.2235
float	-8.22365
B	-8.23997
])	-8.24002
h	-8.24854
g	-8.24949
run	-8.26095
db	-8.26361
should	-8.2655
junit	-8.26617
https	-8.27215
Class	-8.27538
Set	-8.2774
method	-8.27875
state	-8.27919
Builder	-8.28995
target	-8.29167
app	-8.29188
utils	-8.29331
assertEquals	-8.29838
image	-8.30142
error	-8.30158
service	-8.30567
lang	-8.30798
program	-8.31088
string	-8.31333
E	-8.32895
more	-8.33627
Context	-8.3424
server	-8.34531
build	-8.35765
torch	-8.36615
implements	-8.3716
any	-8.37219
Foundation	-8.38873
Config	-8.39606
line	-8.40055
values	-8.40082
val	-8.4011
Value	-8.40758
write	-8.41069
content	-8.42095
All	-8.44018
?	-8.44263
count	-8.44506
IOException	-8.4485
field	-8.44896
V	-8.45123
module	-8.45308
Model	-8.45441
update	-8.45469
|	-8.45735
Node	-8.45795
z	-8.46121
license	-8.46292
check	-8.46642
have	-8.4679
parser	-8.47034
Path	-8.47142
dir	-8.47346
view	-8.47856
params	-8.47966
google	-8.47995
kwargs	-8.48203
read	-8.48238
terms	-8.48364
no	-8.48591
If	-8.48642
query	-8.4872
entity	-8.49165
range	-8.49671
array	-8.50177
open	-8.50723
instance	-8.5134
$	-8.51399
put	-8.5154
N	-8.52627
double	-8.53134
root	-8.5344
"),	-8.53804
load	-8.54062
Event	-8.54171
without	-8.54321
"]	-8.54666
obj	-8.54956
&&	-8.55043
end	-8.55269
byte	-8.55474
py	-8.5588
eclipse	-8.57028
throw	-8.57559
Response	-8.57694
sys	-8.57848
Base	-8.57913
label	-8.57918
&	-8.58123
foo	-8.58198
Request	-8.5829
status	-8.58525
description	-8.59373
():	-8.59686
has	-8.59805
case	-8.60282
User	-8.60307
Info	-8.60323
number	-8.6077
shape	-8.61263
toString	-8.61586
P	-8.61872
current	-8.6228
println	-8.62344
batch	-8.6246
THE	-8.62502
FOR	-8.63038
q	-8.63847
train	-8.6394
M	-8.64091
function	-8.64245
project	-8.64274
equals	-8.64484
catch	-8.64552
logger	-8.65019
join	-8.6504
View	-8.65067
which	-8.65265
action	-8.66118
group	-8.66859
min	-8.675
xml	-8.67705
but	-8.67728
ArrayList	-8.68024
To	-8.68111
Entity	-8.68223
table	-8.68289
Message	-8.69101
parent	-8.69183
Key	-8.70095
when	-8.70622
builder	-8.71018
Item	-8.71095
msg	-8.72005
Free	-8.72374
next	-8.72698
information	-8.7271
github	-8.72752
Long	-8.72919
property	-8.73038
filter	-8.73073
-*-	-8.73076
date	-8.73084
details	-8.73335
token	-8.73668
other	-8.73728
dataset	-8.73807
command	-8.73857
available	-8.74007
nn	-8.74475
django	-8.74743
.*;	-8.74994
used	-8.75113
do	-8.76008
var	-8.76171
For	-8.77128
env	-8.77189
web	-8.77757
+=	-8.78003
res	-8.7812
IN	-8.78565
parse	-8.78727
copyright	-8.79073
stream	-8.79254
img	-8.79397
Get	-8.79421
html	-8.79499
Configuration	-8.79742
Assert	-8.7977
block	-8.79903
Factory	-8.79928
exception	-8.8007
your	-8.80093
Result	-8.80556
minecraft	-8.80623
Error	-8.80988
expected	-8.81387
free	-8.81976
random	-8.82166
modify	-8.82748
Client	-8.82846
only	-8.8317
State	-8.83227
pos	-8.83296
Field	-8.83371
Manager	-8.83402
task	-8.84659
split	-8.85028
Date	-8.85319
option	-8.85788
Inc	-8.85827
Optional	-8.86572
resource	-8.86711
logging	-8.8684
W	-8.86958
work	-8.87032
domain	-8.87148
Action	-8.88303
example	-8.88537
"));	-8.88663
utf	-8.88883
rights	-8.89241
!	-8.89342
PURPOSE	-8.89419
files	-8.89535
FITNESS	-8.89565
K	-8.89567
session	-8.8959
MERCHANTABILITY	-8.89709
PARTICULAR	-8.89716
H	-8.89801
process	-8.90173
python	-8.9088
::	-8.90915
save	-8.91188
API	-8.91241
find	-8.91399
annotations	-8.91404
title	-8.91603
tf	-8.91912
first	-8.92149
pass	-8.9221
getName	-8.9234
device	-8.92687
argument	-8.92723
settings	-8.92744
options	-8.92785
loss	-8.92885
Y	-8.93094
raise	-8.93751
element	-8.95022
WARRANTY	-8.95468
Abstract	-8.9549
order	-8.95514
'),	-8.95757
mock	-8.96015
ui	-8.96198
color	-8.96354
In	-8.96581
G	-8.96917
NAME	-8.97287
assertThat	-8.97573
abstract	-8.98015
doc	-8.98227
tag	-8.98321
Component	-8.99014
graph	-8.99079
Index	-8.99189
ASF	-8.99475
level	-8.99496
remove	-8.99649
internal	-8.99654
last	-8.9986
Resource	-8.99923
my	-9.00617
Source	-9.01152
row	-9.01262
page	-9.01453
Handler	-9.0153
Group	-9.01575
Status	-9.01849
even	-9.0194
received	-9.02122
fields	-9.02157
search	-9.02201
Element	-9.02312
Text	-9.02419
||	-9.02869
cache	-9.02914
while	-9.03013
Code	-9.03536
Provider	-9.04174
close	-9.04287
help	-9.04376
txt	-9.04453
published	-9.04499
reserved	-9.04675
types	-9.05154
][	-9.05733
local	-9.0589
items	-9.06036
Time	-9.06155
delete	-9.0729
bind	-9.07293
(!	-9.07483
tests	-9.07519
URL	-9.08
lombok	-9.08076
Logger	-9.08198
useful	-9.08256
register	-9.08393
Command	-9.08552
Block	-9.08773
generated	-9.08893
call	-9.08927
Default	-9.09579
Filter	-9.10117
width	-9.1017
left	-9.10221
Utils	-9.10467
Collection	-9.10988
idx	-9.10989
Method	-9.11018
Log	-9.11444
redistribute	-9.11525
template	-9.11561
lib	-9.11633
elif	-9.11654
Returns	-9.1168
additional	-9.11893
numpy	-9.11916
sql	-9.12299
player	-9.1245
parameters	-9.1246
NOT	-9.12495
results	-9.12561
system	-9.12782
TYPE	-9.12985
Properties	-9.12996
entry	-9.13011
src	-9.13361
sum	-9.13375
along	-9.13516
world	-9.13606
++)	-9.13776
configuration	-9.13833
warranty	-9.13849
mask	-9.14172
sub	-9.14196
must	-9.14247
Module	-9.14302
later	-9.14771
ing	-9.14889
given	-9.15052
dim	-9.15187
Table	-9.15346
Query	-9.15866
coding	-9.15896
Image	-9.16293
part	-9.16401
make	-9.16589
Count	-9.16898
sample	-9.17026
hope	-9.17069
assertEqual	-9.17266
right	-9.18203
port	-9.18359
'''	-9.18509
Function	-9.18622
Create	-9.18824
properties	-9.1907
execute	-9.19216
cls	-9.1922
factory	-9.19544
so	-9.19622
mode	-9.19751
names	-9.19776
op	-9.19891
assertTrue	-9.19934
filename	-9.20054
];	-9.20644
total	-9.20647
On	-9.20914
ctx	-9.20944
Task	-9.21044
O	-9.2125
step	-9.21527
Property	-9.2162
buffer	-9.21708
"))	-9.21831
schema	-9.21914
position	-9.22025
non	-9.22117
break	-9.2214
With	-9.22262
{}	-9.2238
的	-9.22437
body	-9.22501
bin	-9.22688
pytest	-9.22757
form	-9.22984
debug	-9.23343
df	-9.23404
its	-9.2341
handler	-9.23496
application	-9.23536
impl	-9.23673
plugin	-9.23744
objects	-9.2433
Util	-9.24495
Column	-9.24503
contains	-9.24585
pre	-9.24743
J	-9.24774
>>	-9.24915
cloud	-9.24944
show	-9.24999
address	-9.25147
Z	-9.25336
password	-9.25372
channel	-9.25637
metadata	-9.25901
Server	-9.27165
store	-9.27176
Color	-9.27318
following	-9.27482
Entry	-9.27797
tree	-9.27832
host	-9.28199
Repository	-9.28234
Lesser	-9.28257
offset	-9.28393
Boolean	-9.28453
layer	-9.28484
bytes	-9.28802
security	-9.28949
engine	-9.29079
Project	-9.29441
match	-9.29463
instanceof	-9.29473
<>();	-9.29661
header	-9.29919
network	-9.29933
keys	-9.2994
auto	-9.29946
ids	-9.29991
column	-9.3031
height	-9.3031
connection	-9.30995
setup	-9.31051
HashMap	-9.31102
Nullable	-9.31215
admin	-9.31466
arg	-9.31607
record	-9.32046
sb	-9.32113
Input	-9.32125
No	-9.32251
was	-9.325
migrations	-9.32568
classes	-9.32728
using	-9.33191
frame	-9.33346
Number	-9.33373
directory	-9.3382
attribute	-9.34024
up	-9.3451
since	-9.34977
cfg	-9.35269
gnu	-9.35342
Listener	-9.35647
point	-9.35667
send	-9.35868
Size	-9.35995
Impl	-9.36099
Target	-9.36663
TestCase	-9.36767
found	-9.37039
``	-9.37121
job	-9.37127
Output	-9.37383
Bean	-9.3751
transform	-9.37695
location	-9.3792
rs	-9.37991
AND	-9.38135
Helper	-9.38474
future	-9.39072
support	-9.39173
dev	-9.3928
component	-9.398
stack	-9.40115
labels	-9.40381
post	-9.40655
SOFTWARE	-9.40698
framework	-9.40935
valid	-9.4096
library	-9.41023
prefix	-9.41499
nums	-9.41675
ch	-9.41841
isinstance	-9.42051
func	-9.42146
Identifier	-9.4241
getValue	-9.42567
features	-9.43671
auth	-9.43973
us	-9.44223
feature	-9.44363
'],	-9.44371
empty	-9.44399
handle	-9.44526
lt	-9.44779
Arrays	-9.44831
async	-9.44921
lambda	-9.4528
Application	-9.45342
Instance	-9.45406
([	-9.45675
Throwable	-9.45839
Array	-9.45864
datetime	-9.4598
ref	-9.46043
repository	-9.46234
bool	-9.46775
KEY	-9.46823
TO	-9.47305
original	-9.47327
gen	-9.47447
Page	-9.47524
top	-9.47614
each	-9.47671
word	-9.47764
Token	-9.47831
replace	-9.48187
Constants	-9.48385
NOTICE	-9.486
scale	-9.48837
Update	-9.48851
conditions	-9.49121
database	-9.49513
Tag	-9.49561
math	-9.49581
parameter	-9.49607
Add	-9.49863
weight	-9.50215
tools	-9.50229
li	-9.50298
Cache	-9.50373
Level	-9.50514
conf	-9.50602
By	-9.50633
.__	-9.50754
Objects	-9.50982
Session	-9.51004
meta	-9.51278
Options	-9.51357
And	-9.51379
br	-9.5149
Container	-9.51517
hash	-9.51628
Check	-9.51635
raw	-9.51833
modules	-9.51897
access	-9.51976
custom	-9.52189
regarding	-9.52236
Controller	-9.52439
Point	-9.52442
ownership	-9.52494
Content	-9.52581
U	-9.52803
DEFAULT	-9.52921
manager	-9.53071
email	-9.53156
headers	-9.53279
subject	-9.53298
layout	-9.53592
select	-9.5378
Parameter	-9.53846
Q	-9.53852
able	-9.53903
username	-9.5408
account	-9.54335
Rule	-9.54495
contributor	-9.54647
col	-9.54809
Settings	-9.5528
mean	-9.55316
per	-9.55585
unittest	-9.55672
Record	-9.55766
Connection	-9.55794
char	-9.5604
boot	-9.56043
pop	-9.56084
Location	-9.56091
Document	-9.56131
generate	-9.56197
gt	-9.57143
Stream	-9.5716
notice	-9.57189
Mode	-9.57207
conv	-9.57228
()).	-9.57258
jupiter	-9.57275
Template	-9.57365
mod	-9.57369
Label	-9.57409
agreements	-9.57416
Thread	-9.58375
Args	-9.58431
exists	-9.58436
full	-9.58514
From	-9.58514
Double	-9.58552
//#	-9.58615
old	-9.58818
Parameters	-9.59016
apply	-9.59138
cmd	-9.59286
cn	-9.59437
Simple	-9.59495
nodes	-9.59672
spec	-9.59712
provided	-9.59718
unit	-9.59738
axis	-9.59765
Java	-9.59915
Open	-9.60117
bar	-9.60167
Player	-9.6024
change	-9.60474
resources	-9.60478
dtype	-9.60652
runtime	-9.60734
temp	-9.61049
ip	-9.61059
Attribute	-9.61142
NO	-9.61226
after	-9.61254
Param	-9.61704
()));	-9.61721
container	-9.61778
box	-9.62398
created	-9.62399
distribution	-9.62475
document	-9.62561
matrix	-9.626
Created	-9.62822
score	-9.62983
global	-9.63206
App	-9.63249
Description	-9.63742
tmp	-9.63772
permission	-9.63822
'])	-9.63877
generator	-9.63959
validate	-9.64023
render	-9.64084
convert	-9.64095
edit	-9.64168
provider	-9.64454
Serializable	-9.64489
Schema	-9.64849
events	-9.64906
grid	-9.65119
Math	-9.65205
usr	-9.65209
points	-9.65518
Oracle	-9.65537
getInstance	-9.65654
head	-9.65703
attr	-9.65773
rest	-9.6583
--	-9.6592
getId	-9.66
Plugin	-9.66164
commons	-9.66176
child	-9.66212
script	-9.66243
arr	-9.66274
await	-9.66552
plt	-9.66731
include	-9.66798
now	-9.66801
Metadata	-9.6756
Address	-9.67597
Parser	-9.67639
game	-9.67659
tensor	-9.6772
Any	-9.67771
cv	-9.67882
opt	-9.68005
Url	-9.68101
seed	-9.68169
style	-9.6834
Order	-9.68472
un	-9.68556
inputs	-9.68681
Enum	-9.68928
reference	-9.69043
st	-9.69119
display	-9.69133
Mapper	-9.69259
Generated	-9.69269
storage	-9.6933
"\	-9.69521
where	-9.69679
implementation	-9.69715
getClass	-9.69817
isEmpty	-9.70025
protocol	-9.70053
services	-9.70193
Mock	-9.70297
sdk	-9.70381
ret	-9.70431
widget	-9.70996
tags	-9.71003
flow	-9.71117
Expression	-9.71432
report	-9.71443
NotNull	-9.71623
channels	-9.7168
into	-9.71695
queue	-9.72286
Bundle	-9.72453
jackson	-9.72501
Generator	-9.72705
verify	-9.72954
JSON	-9.73262
gui	-9.73278
same	-9.73515
platform	-9.7353
Form	-9.73633
noqa	-9.73686
Not	-9.73691
csv	-9.73926
cause	-9.73967
rule	-9.74103
*********************	-9.74292
Migration	-9.74321
plot	-9.74328
。	-9.74404
Iterator	-9.74405
binary	-9.74597
Activity	-9.74624
Vector	-9.74633
product	-9.74641
Python	-9.7465
Collections	-9.74674
persistence	-9.74944
initial	-9.75051
uri	-9.75089
kernel	-9.75172
testing	-9.75207
extension	-9.75258
pattern	-9.75274
callback	-9.75665
validation	-9.7568
clear	-9.75855
sort	-9.75898
reader	-9.75964
specified	-9.76231
stop	-9.76333
vo	-9.76382
Button	-9.76438
control	-9.76548
th	-9.76707
need	-9.76726
documentation	-9.76768
made	-9.76804
before	-9.76917
Pattern	-9.76925
folder	-9.77302
rate	-9.77668
It	-9.77696
{'	-9.78033
DB	-9.78788
window	-9.78924
pred	-9.78959
above	-9.78994
getLogger	-9.79039
continue	-9.79069
Api	-9.79115
Header	-9.79178
MIT	-9.79286
COPYRIGHT	-9.79306
Reference	-9.79307
cluster	-9.7937
images	-9.79539
()))	-9.79765
FILE	-9.8015
#!/	-9.80243
pool	-9.80288
beans	-9.80544
\"	-9.80619
<?>	-9.80628
limit	-9.80688
lines	-9.80782
Operation	-9.80818
sequence	-9.81206
variable	-9.8122
TODO	-9.81346
ar	-9.81385
norm	-9.81454
operation	-9.81525
ext	-9.81728
Affero	-9.82176
USE	-9.82279
layers	-9.82394
requests	-9.82452
>=	-9.82675
actual	-9.8268
thread	-9.82763
concurrent	-9.82879
metrics	-9.82934
single	-9.82989
policy	-9.83098
role	-9.83139
collect	-9.83169
INCLUDING	-9.83178
errors	-9.83234
fasterxml	-9.83314
Store	-9.83352
Interface	-9.83448
listener	-9.83539
here	-9.83636
URI	-9.8368
serialVersionUID	-9.83703
space	-9.8374
servlet	-9.83889
Job	-9.84046
timeout	-9.84059
writer	-9.84077
ws	-9.841
[:,	-9.84118
Adapter	-9.84529
exceptions	-9.84643
Channel	-9.84715
views	-9.84735
some	-9.84857
agent	-9.84875
NonNull	-9.85044
Start	-9.85154
arguments	-9.85201
)))	-9.85215
methods	-9.85354
"],	-9.85433
loader	-9.85571
scope	-9.85741
attributes	-9.85765
Package	-9.85818
]:	-9.86019
Local	-9.86183
materials	-9.86294
patch	-9.86361
typing	-9.86445
UUID	-9.86478
("/	-9.86515
seq	-9.86576
bot	-9.86636
tuple	-9.8664
Eclipse	-9.86724
fn	-9.87033
plotly	-9.87189
Callback	-9.87218
Dict	-9.87316
Permission	-9.87617
samples	-9.87635
decode	-9.87664
active	-9.87737
reset	-9.87831
ims	-9.87923
StringBuilder	-9.88068
Policy	-9.88078
enabled	-9.88147
connect	-9.88153
Position	-9.88286
im	-9.88318
endpoint	-9.88323
pd	-9.88327
Wrapper	-9.88582
Assertions	-9.88588
DATA	-9.88631
training	-9.88767
Example	-9.88784
Use	-9.88791
href	-9.88875
commands	-9.88929
Tree	-9.8902
sun	-9.89108
bean	-9.89135
visit	-9.89449
simple	-9.89634
encoding	-9.89738
lr	-9.89835
Meta	-9.89852
valueOf	-9.89885
then	-9.89957
/>.	-9.89965
RuntimeException	-9.89975
VALUE	-9.90156
Line	-9.90354
registry	-9.9042
Category	-9.90523
login	-9.90563
slf	-9.90769
payload	-9.90829
InputStream	-9.90928
category	-9.90941
native	-9.90942
does	-9.91013
insert	-9.91094
merge	-9.91107
collection	-9.91199
Format	-9.91225
Ref	-9.91252
verbose	-9.91285
two	-9.91342
MAX	-9.91374
Autowired	-9.91385
Invalid	-9.91473
mark	-9.91536
video	-9.91794
button	-9.92034
exit	-9.92115
LOG	-9.92142
Reader	-9.92213
operations	-9.92273
encode	-9.92292
Link	-9.9236
Of	-9.92473
USA	-9.92633
'))	-9.92755
Graph	-9.9281
Search	-9.93006
ignore	-9.93175
Return	-9.93184
Account	-9.93198
elements	-9.93303
short	-9.93409
epoch	-9.93462
).__	-9.93467
Registry	-9.93504
controller	-9.93605
'__	-9.93686
users	-9.93832
pipeline	-9.93972
err	-9.94033
buf	-9.94216
edge	-9.94415
IllegalArgumentException	-9.94438
proxy	-9.94473
Custom	-9.94684
site	-9.94945
equal	-9.95133
hashCode	-9.95363
alpha	-9.95384
expression	-9.95789
compute	-9.95897
<?	-9.96081
Dataset	-9.96212
Definition	-9.96284
cur	-9.965
MA	-9.96719
mc	-9.96788
transaction	-9.96845
ValueError	-9.96995
getMessage	-9.97027
editor	-9.9721
person	-9.97407
mapping	-9.97656
Option	-9.97671
profile	-9.97812
sc	-9.98174
called	-9.98203
messages	-9.98301
>>>	-9.98305
PATH	-9.98457
lower	-9.98552
My	-9.98742
Length	-9.98751
('--	-9.98766
plugins	-9.98811
forward	-9.9887
Json	-9.98967
EVENT	-9.99063
grad	-9.99097
req	-9.99203
mapper	-9.99487
cell	-9.99549
been	-9.99566
microsoft	-9.99627
timestamp	-9.9972
hidden	-9.99803
activity	-9.99804
like	-10.0006
iter	-10.0008
driver	-10.0036
namespace	-10.0039
ERROR	-10.0042
THIS	-10.0044
An	-10.0052
XML	-10.007
optional	-10.007
Validator	-10.008
flag	-10.008
exp	-10.0083
Delete	-10.0086
zip	-10.0092
UI	-10.0097
DO	-10.0105
included	-10.0112
second	-10.0125
ms	-10.0144
fail	-10.0157
uuid	-10.0161
tokens	-10.0177
Solution	-10.0178
ts	-10.018
Params	-10.0186
weights	-10.0189
than	-10.0225
runner	-10.0232
Values	-10.0247
Read	-10.0255
Process	-10.0262
<>(	-10.0299
Getter	-10.0306
Processor	-10.031
legal	-10.032
__':	-10.0329
Int	-10.0356
Stack	-10.0364
success	-10.0365
region	-10.0372
)),	-10.0373
cat	-10.0378
Transaction	-10.038
memory	-10.0393
sleep	-10.0401
demo	-10.041
Language	-10.041
\\	-10.0424
md	-10.0428
SPDX	-10.0442
accompanying	-10.0452
strip	-10.0458
dp	-10.0459
Reserved	-10.0463
IO	-10.0468
stats	-10.0478
columns	-10.0484
ps	-10.0486
IMPLIED	-10.049
actions	-10.0492
Panel	-10.0494
Extension	-10.0509
Spec	-10.051
iterator	-10.0538
Feature	-10.0539
OTHER	-10.0564
Unit	-10.0566
TEST	-10.0568
Types	-10.057
Change	-10.0572
remote	-10.0572
Sets	-10.0578
Product	-10.0582
Frame	-10.0582
amount	-10.0603
LIMITED	-10.0603
Tests	-10.0603
metric	-10.0608
Range	-10.0616
Mapping	-10.0619
Tuple	-10.0624
Row	-10.0633
environment	-10.0633
components	-10.0636
switch	-10.0648
groups	-10.0649
SIZE	-10.0675
BUT	-10.0675
<=	-10.068
OUT	-10.0681
GET	-10.0686
selected	-10.0688
Device	-10.0698
Converter	-10.0705
unique	-10.0728
"/	-10.0733
JsonProperty	-10.0744
socket	-10.0744
BE	-10.0747
shared	-10.0749
World	-10.0763
Report	-10.0776
SuppressWarnings	-10.0783
outputs	-10.0786
Queue	-10.0787
also	-10.0789
Dao	-10.0792
spring	-10.0815
Rights	-10.0826
Proxy	-10.0837
">	-10.084
argv	-10.086
ok	-10.0876
ItemStack	-10.0879
co	-10.089
download	-10.09
depth	-10.0905
sa	-10.0913
lock	-10.0925
-->	-10.0933
install	-10.0937
Network	-10.0962
Nonnull	-10.0963
extra	-10.0965
conn	-10.0982
LoggerFactory	-10.0986
Build	-10.1
LIABILITY	-10.1003
draw	-10.1007
based	-10.1022
Call	-10.1028
dist	-10.103
multi	-10.1032
Annotation	-10.1035
there	-10.1038
[-	-10.1069
requires	-10.107
FROM	-10.1075
tr	-10.1076
Control	-10.1079
});	-10.1084
swing	-10.1086
backend	-10.109
]]	-10.11
GPL	-10.1114
Variable	-10.1115
Storage	-10.1117
affiliates	-10.1118
Profile	-10.112
cli	-10.1125
Random	-10.1132
Is	-10.1136
docs	-10.1148
section	-10.1153
comment	-10.1179
Strategy	-10.1185
ax	-10.1192
disable	-10.1208
','	-10.1215
dto	-10.1218
copies	-10.1219
'\	-10.1256
Access	-10.1261
New	-10.1265
repo	-10.1271
begin	-10.1278
optimizer	-10.1291
accept	-10.1307
Sub	-10.1319
constants	-10.1319
Details	-10.1325
ElementType	-10.1341
font	-10.1347
ly	-10.135
Buffer	-10.137
invalid	-10.1382
End	-10.1388
getType	-10.1393
ds	-10.1396
helper	-10.1403
mage	-10.1404
padding	-10.1411
zero	-10.1426
Environment	-10.1463
Main	-10.1465
menu	-10.1469
Core	-10.1474
VERSION	-10.1482
Files	-10.1486
Writer	-10.1492
master	-10.1504
functions	-10.1508
Dto	-10.1511
Dialog	-10.1513
flags	-10.1517
Attributes	-10.1521
edu	-10.1535
getString	-10.1537
associated	-10.1549
indices	-10.156
ns	-10.1563
steps	-10.1577
androidx	-10.1588
failed	-10.1588
contact	-10.1604
loop	-10.1607
abs	-10.161
identifier	-10.1614
Packet	-10.1617
sync	-10.1636
datasets	-10.1645
>();	-10.166
pl	-10.1664
)]	-10.1665
Database	-10.1667
Descriptor	-10.1669
chat	-10.1671
center	-10.1673
Before	-10.1694
Step	-10.17
Serializer	-10.1705
sorted	-10.1705
Common	-10.1707
Window	-10.1712
Bytes	-10.1726
awt	-10.1727
INSTANCE	-10.1731
cs	-10.174
go	-10.1743
Role	-10.1744
Consumer	-10.1753
allowed	-10.1756
Inject	-10.1759
("\	-10.1765
At	-10.1778
HTTP	-10.1781
skip	-10.179
Import	-10.1805
extract	-10.1814
Foo	-10.1816
(__	-10.1821
icon	-10.1821
owner	-10.1822
Author	-10.1837
dest	-10.1853
paths	-10.1856
al	-10.1863
Auto	-10.1891
desc	-10.1897
fr	-10.1899
entities	-10.1904
returns	-10.1905
Run	-10.1915
card	-10.1931
dependencies	-10.1947
examples	-10.195
cuda	-10.1951
pi	-10.1972
png	-10.198
enable	-10.1984
cc	-10.1989
distance	-10.1992
Tensor	-10.1993
mail	-10.1998
vector	-10.2
dao	-10.2012
ast	-10.2015
fs	-10.2017
TAG	-10.2024
member	-10.2046
Sequence	-10.2049
DIR	-10.205
Multi	-10.2054
trace	-10.2095
Condition	-10.2101
media	-10.2102
bias	-10.2103
nio	-10.2109
tasks	-10.2119
cpu	-10.2122
<!--	-10.2123
compile	-10.2142
condition	-10.2142
Port	-10.2143
DTO	-10.2145
Internal	-10.215
summary	-10.2165
"])	-10.2179
inject	-10.2193
Style	-10.2202
authors	-10.2208
dt	-10.2227
assertFalse	-10.2229
diff	-10.2243
packet	-10.2261
Str	-10.2265
Or	-10.229
urls	-10.2294
Boston	-10.2298
rows	-10.2307
drop	-10.2316
GL	-10.2318
As	-10.2324
operator	-10.2333
counter	-10.2349
sp	-10.2351
Load	-10.2355
best	-10.2355
real	-10.2365
ON	-10.2377
Gets	-10.2378
Loader	-10.238
click	-10.2383
Customer	-10.2388
Offset	-10.2408
rules	-10.2416
"__	-10.2429
Contributors	-10.2445
defaults	-10.2446
Layer	-10.2479
Retention	-10.2493
tool	-10.2493
IP	-10.2508
Float	-10.251
swagger	-10.2536
execution	-10.2537
constant	-10.2552
between	-10.2559
Layout	-10.2561
variables	-10.2576
contributors	-10.2596
]))	-10.2603
resolve	-10.2605
allow	-10.2609
Scanner	-10.2627
NON	-10.2638
ACTION	-10.2641
forms	-10.2645
zeros	-10.2646
filters	-10.2647
Fragment	-10.2656
Intent	-10.2664
Max	-10.2665
fill	-10.267
Flow	-10.2672
stereotype	-10.2677
words	-10.268
interval	-10.2682
don	-10.2685
Mixin	-10.2689
git	-10.2697
Statement	-10.2702
dirname	-10.2714
beta	-10.2725
resp	-10.2726
definition	-10.2728
bit	-10.2729
absolute	-10.2735
Part	-10.2747
Person	-10.276
matches	-10.2762
setUp	-10.2762
yaml	-10.2777
loc	-10.2794
home	-10.28
vm	-10.2816
price	-10.2818
Root	-10.2826
:`	-10.2831
pad	-10.2834
move	-10.284
off	-10.2844
ac	-10.2846
back	-10.285
**********************************************************/	-10.285
topic	-10.286
/**********************************************************	-10.2866
scene	-10.2877
constructor	-10.2879
environ	-10.2898
pt	-10.2902
wait	-10.2903
encoder	-10.2904
WITH	-10.2909
mockito	-10.2909
Basic	-10.2953
SQL	-10.2961
BigDecimal	-10.2967
supported	-10.2979
export	-10.2982
running	-10.2983
over	-10.2986
++;	-10.299
Do	-10.2996
returned	-10.2998
Scope	-10.3004
release	-10.3013
children	-10.3015
tt	-10.3018
Endpoint	-10.3025
basic	-10.3039
mat	-10.3051
Setting	-10.3074
compiler	-10.3087
]);	-10.3091
Web	-10.3123
__":	-10.3124
spi	-10.3144
chain	-10.3145
apps	-10.3147
std	-10.3152
Editor	-10.3161
Cluster	-10.3183
Pos	-10.3204
publish	-10.321
isEqualTo	-10.3211
USER	-10.3222
del	-10.3226
bukkit	-10.3239
defined	-10.3243
initialize	-10.3273
Script	-10.328
Items	-10.3286
route	-10.3302
wrapper	-10.3303
Uri	-10.331
stat	-10.331
Constant	-10.3313
Floor	-10.3323
Matrix	-10.3338
When	-10.3348
argparse	-10.3377
HashSet	-10.3383
Menu	-10.3396
sim	-10.3417
'):	-10.3417
Mod	-10.3456
Pair	-10.3459
ops	-10.3476
Generic	-10.3478
cursor	-10.3483
checkpoint	-10.3485
configure	-10.3489
Box	-10.3491
setting	-10.3514
gmail	-10.3517
age	-10.352
intellij	-10.3523
StringUtils	-10.3523
FIELD	-10.3538
assertNotNull	-10.3541
normal	-10.3543
blank	-10.3566
LOGGER	-10.3569
stride	-10.3572
down	-10.3578
exist	-10.3578
collections	-10.3584
Un	-10.3593
alibaba	-10.3599
Host	-10.3605
)));	-10.3608
secret	-10.3616
Widget	-10.3619
Num	-10.363
day	-10.3644
unicode	-10.3651
CONTRACT	-10.3689
attrs	-10.3695
Dir	-10.3697
commit	-10.3699
PROVIDED	-10.3711
changed	-10.3714
Engine	-10.3731
duration	-10.3732
mp	-10.3737
blocks	-10.3737
Corporation	-10.3738
","	-10.3745
dialog	-10.3751
asList	-10.3752
such	-10.3756
Duration	-10.376
year	-10.3776
including	-10.3777
Member	-10.3792
about	-10.3794
Handle	-10.3795
plan	-10.3795
Mockito	-10.3798
RetentionPolicy	-10.3805
already	-10.3819
contents	-10.3825
statement	-10.3826
Operator	-10.3835
asm	-10.3847
enumerate	-10.3852
DAMAGES	-10.3853
Post	-10.3856
chunk	-10.3875
clone	-10.3887
Please	-10.3897
Write	-10.3899
().__	-10.3906
reason	-10.3907
adapter	-10.3909
Pointer	-10.3924
Support	-10.3926
factor	-10.3929
book	-10.3945
ml	-10.3952
Admin	-10.3954
updated	-10.3954
SHALL	-10.3955
LIABLE	-10.3958
Messages	-10.3979
extensions	-10.398
times	-10.3992
Region	-10.3997
delta	-10.3999
setText	-10.4
EXPRESS	-10.4007
yield	-10.4015
RunWith	-10.4025
WHETHER	-10.4036
jboss	-10.4037
ARISING	-10.404
Select	-10.4043
prev	-10.4045
analysis	-10.4047
Supplier	-10.4055
Sample	-10.4056
symbol	-10.4094
Failed	-10.4109
fc	-10.411
oracle	-10.4113
dot	-10.4117
interfaces	-10.4122
serialize	-10.4126
integer	-10.4129
team	-10.413
^	-10.4134
tab	-10.4137
just	-10.4139
packages	-10.4141
missing	-10.415
Empty	-10.4151
Predicate	-10.4151
printStackTrace	-10.4175
TORT	-10.4178
Constructor	-10.418
management	-10.4198
OTHERWISE	-10.4208
added	-10.4212
related	-10.4212
compare	-10.4213
Names	-10.4216
Net	-10.4216
Body	-10.4234
ad	-10.4241
Agent	-10.4242
processor	-10.4258
Conv	-10.4266
ca	-10.4277
js	-10.4279
reverse	-10.4283
possible	-10.4288
strategy	-10.4297
Enabled	-10.4298
scores	-10.4301
invoke	-10.4304
Match	-10.4309
substring	-10.4309
##	-10.4316
Fifth	-10.4319
progress	-10.4325
contrib	-10.4325
different	-10.4333
Holder	-10.4349
Platform	-10.4354
fit	-10.4364
After	-10.437
Title	-10.4375
Only	-10.4375
prob	-10.4376
stdout	-10.4379
Franklin	-10.4388
identity	-10.4391
exec	-10.4395
finally	-10.4395
div	-10.4401
Stats	-10.4415
scan	-10.4416
whether	-10.4418
Async	-10.4421
Domain	-10.4421
----------------------------------------------------------------	-10.4422
fp	-10.4426
}")	-10.4428
Icon	-10.4437
rt	-10.4437
lookup	-10.4441
bbox	-10.4443
correct	-10.4445
redis	-10.445
Information	-10.4453
Op	-10.4458
dictionary	-10.4467
Fields	-10.447
restriction	-10.4477
history	-10.4478
dump	-10.4481
push	-10.4494
Matcher	-10.4495
Notification	-10.4502
Non	-10.4515
']['	-10.4524
Batch	-10.4525
getKey	-10.4526
area	-10.4531
pulumi	-10.4531
userId	-10.4533
ul	-10.4544
clazz	-10.4545
track	-10.4556
ED	-10.4559
tc	-10.4562
"--	-10.457
CharField	-10.4577
Single	-10.458
UTF	-10.4589
signal	-10.4591
multiple	-10.4594
Directory	-10.46
regex	-10.4606
###	-10.4608
DataSource	-10.4609
cms	-10.4614
side	-10.4614
cast	-10.4615
Django	-10.4616
onCreate	-10.4617
present	-10.4621
Card	-10.4621
fetch	-10.4634
Out	-10.4637
rank	-10.4639
OK	-10.4649
Counter	-10.4657
expr	-10.4672
delegate	-10.4677
mixin	-10.4677
integration	-10.4682
protobuf	-10.4682
existing	-10.4687
hello	-10.469
structure	-10.4697
HOLDERS	-10.4716
di	-10.4734
Red	-10.4738
Display	-10.4738
Section	-10.4741
savedInstanceState	-10.4751
entries	-10.4751
Space	-10.4752
addr	-10.4753
audio	-10.4755
Runnable	-10.4759
Msg	-10.4766
td	-10.4769
selection	-10.4773
ai	-10.4773
Creates	-10.4777
POST	-10.4777
mu	-10.4781
props	-10.4795
sender	-10.4801
passed	-10.4801
primary	-10.4804
reg	-10.4807
Hash	-10.4808
Game	-10.4809
Width	-10.4861
Google	-10.4878
Sql	-10.4903
low	-10.4906
proto	-10.491
art	-10.4919
seconds	-10.492
force	-10.4945
synchronized	-10.4949
acc	-10.4954
red	-10.4956
thenReturn	-10.4959
Shape	-10.4962
gson	-10.4971
hadoop	-10.4972
aws	-10.4984
Setter	-10.4985
Pool	-10.499
TreeNode	-10.4991
threshold	-10.5001
cost	-10.5002
prop	-10.5009
Library	-10.501
Comparator	-10.5017
----------	-10.5032
external	-10.5035
mo	-10.5046
Selector	-10.5051
previous	-10.5052
Http	-10.5063
Union	-10.5066
console	-10.5067
Binding	-10.5071
Executor	-10.5088
reflect	-10.5103
visitor	-10.5115
bucket	-10.5124
tx	-10.5128
inventory	-10.5129
screen	-10.513
:]	-10.5146
epl	-10.515
++	-10.5158
Metric	-10.5163
Protocol	-10.5182
"+	-10.5186
fragment	-10.5187
algorithm	-10.5197
sent	-10.5212
HttpServletRequest	-10.5212
states	-10.5213
Visitor	-10.5216
vec	-10.5217
power	-10.5219
mesh	-10.5229
"";	-10.5238
jakarta	-10.5242
instances	-10.5249
dom	-10.5252
charge	-10.5252
sh	-10.526
Remove	-10.5273
Height	-10.5287
fixture	-10.529
hasattr	-10.5301
cannot	-10.5307
INFO	-10.5309
inner	-10.5314
keep	-10.5319
__()	-10.5331
generic	-10.5331
sigma	-10.5342
Lock	-10.5345
stage	-10.5349
getProperty	-10.5356
pdf	-10.5365
because	-10.5369
reply	-10.5374
mm	-10.538
Auth	-10.5382
span	-10.5384
volume	-10.5396
St	-10.5403
Py	-10.5415
NULL	-10.5416
SpringApplication	-10.542
ss	-10.5429
ans	-10.5433
require	-10.5438
term	-10.5438
gl	-10.544
complete	-10.5449
BY	-10.5449
CODE	-10.5454
'%	-10.5454
subprocess	-10.5459
pair	-10.5461
scheduler	-10.5462
tile	-10.5464
win	-10.5477
HEADER	-10.5482
><	-10.5483
containing	-10.5489
pack	-10.5493
Cell	-10.5499
AN	-10.5502
IF	-10.5519
fake	-10.5521
abc	-10.5523
Grid	-10.5533
monitor	-10.5534
Keys	-10.5537
Ids	-10.5563
SpringBootApplication	-10.5577
Timestamp	-10.5577
notification	-10.558
origin	-10.5596
act	-10.5602
VO	-10.5655
warning	-10.5658
signature	-10.5658
round	-10.5662
Edge	-10.5672
Collectors	-10.5679
high	-10.5685
__)	-10.5687
ratio	-10.569
Comment	-10.569
done	-10.5694
~	-10.5697
warn	-10.5702
rel	-10.5705
]),	-10.5715
Resolver	-10.572
choice	-10.5722
为	-10.5729
destination	-10.5746
ru	-10.5747
distribute	-10.5751
END	-10.5762
SQLException	-10.5765
Byte	-10.5771
Password	-10.5777
evaluate	-10.5793
usage	-10.58
licensed	-10.5802
Security	-10.5808
them	-10.5814
maximum	-10.5817
segment	-10.5819
obs	-10.5829
problem	-10.5836
standard	-10.5841
"},	-10.5842
alias	-10.585
descriptor	-10.5864
parts	-10.5867
netty	-10.5881
shell	-10.5893
both	-10.5897
serializer	-10.5908
azure	-10.5913
Material	-10.5917
detail	-10.5925
changes	-10.5926
units	-10.594
WARNING	-10.5948
nextInt	-10.5949
Cloud	-10.596
processing	-10.5962
nc	-10.5966
rpc	-10.5973
upload	-10.5973
linear	-10.5975
schedule	-10.5986
par	-10.6004
how	-10.6012
consumer	-10.6017
extend	-10.6028
validator	-10.6035
Db	-10.6044
Iterable	-10.6044
converter	-10.6054
authentication	-10.6054
Prefix	-10.6055
Metrics	-10.6055
cm	-10.6066
Var	-10.6075
binding	-10.6085
via	-10.6092
matcher	-10.6094
suite	-10.6098
raises	-10.6102
ByteBuffer	-10.6118
History	-10.612
getattr	-10.6122
Contact	-10.6122
board	-10.6127
tl	-10.613
Folder	-10.6131
OS	-10.6141
gpu	-10.6143
Hello	-10.6147
NLS	-10.6163
Remote	-10.6167
graphics	-10.6167
dst	-10.6168
executor	-10.6171
CONFIG	-10.6172
decoder	-10.6173
Topic	-10.619
boxes	-10.6194
spongepowered	-10.6199
Sync	-10.6206
targets	-10.6209
worker	-10.6211
Xml	-10.6236
con	-10.6237
Expr	-10.6245
sign	-10.6246
uid	-10.6255
clean	-10.6263
safe	-10.6277
dd	-10.6284
aliyuncs	-10.6291
Renderer	-10.6292
mid	-10.6295
First	-10.6295
curr	-10.6296
Null	-10.6304
setName	-10.632
Transform	-10.6321
uk	-10.6335
calculate	-10.6343
cl	-10.6353
bundle	-10.6362
Doc	-10.6368
nd	-10.6374
granted	-10.6382
rand	-10.6383
ll	-10.6384
Runtime	-10.6387
struct	-10.639
direction	-10.6396
Email	-10.6397
Env	-10.6398
repr	-10.6408
modified	-10.641
sell	-10.6423
radius	-10.6433
Obj	-10.6451
tensorflow	-10.6454
Tool	-10.6458
light	-10.646
HTML	-10.6466
Team	-10.6469
strings	-10.647
slot	-10.6476
our	-10.6483
ic	-10.6483
play	-10.649
angle	-10.649
TimeUnit	-10.6498
CONNECTION	-10.6499
CA	-10.6501
partition	-10.6506
records	-10.6508
instead	-10.6508
TIME	-10.6509
setValue	-10.6522
upper	-10.654
intent	-10.6541
relative	-10.6542
want	-10.6553
bn	-10.6559
learning	-10.6562
period	-10.6566
setter	-10.6568
reshape	-10.6573
Calendar	-10.6589
cp	-10.6599
Usage	-10.6607
Linear	-10.6611
branch	-10.6617
da	-10.6618
Font	-10.6618
Selection	-10.6623
camera	-10.6625
notify	-10.6631
less	-10.6633
blob	-10.6663
dropout	-10.6667
Resources	-10.6669
representation	-10.6673
BASE	-10.6685
activation	-10.6689
renderer	-10.6703
()),	-10.6704
Memory	-10.6711
embedding	-10.6712
hibernate	-10.6716
ensure	-10.6722
Book	-10.6727
answer	-10.6731
vars	-10.6732
openapi	-10.6733
Min	-10.6736
transforms	-10.676
Global	-10.6764
refresh	-10.6783
alipay	-10.6786
Register	-10.6788
tech	-10.6803
Transformer	-10.6804
exc	-10.6807
what	-10.681
through	-10.6813
elasticsearch	-10.6814
Callable	-10.6815
solution	-10.6839
deal	-10.685
Flag	-10.685
***	-10.6854
kind	-10.6854
prepare	-10.6858
Microsoft	-10.6866
flink	-10.6871
latest	-10.6872
dl	-10.6872
their	-10.6874
shall	-10.6877
avg	-10.6879
JSONObject	-10.6884
Detail	-10.6894
##################################################	-10.6905
machine	-10.6921
vocab	-10.6932
connector	-10.6936
Driver	-10.6952
pk	-10.6958
Bar	-10.6967
Android	-10.6974
STRING	-10.6975
Plan	-10.6976
Child	-10.6977
keyword	-10.6983
pkg	-10.6991
BSD	-10.7001
staticmethod	-10.7008
way	-10.7018
numbers	-10.7022
OutputStream	-10.7027
trans	-10.7036
Users	-10.7043
credentials	-10.7049
ApiModelProperty	-10.7054
cb	-10.7059
ALL	-10.7074
wrap	-10.7077
within	-10.7086
health	-10.7092
written	-10.7094
bad	-10.7096
AllArgsConstructor	-10.7122
delay	-10.7125
Binary	-10.7126
predict	-10.7128
Summary	-10.7136
Future	-10.7147
dynamic	-10.7156
decay	-10.716
ING	-10.7166
disclaimer	-10.718
Required	-10.7184
bb	-10.7195
Distribution	-10.7203
trigger	-10.7207
jar	-10.7207
feat	-10.7215
[][]	-10.7225
jdbc	-10.7245
clip	-10.7275
panel	-10.7276
business	-10.7276
'--	-10.7277
Character	-10.7282
named	-10.7283
embed	-10.7289
ff	-10.7289
Dynamic	-10.7297
Effect	-10.7307
RequestMapping	-10.7312
Encoder	-10.7315
dc	-10.7317
jpa	-10.733
Show	-10.7337
Char	-10.7338
workflow	-10.7342
Init	-10.7352
DateTime	-10.7369
Namespace	-10.737
suffix	-10.7371
DEBUG	-10.7373
opts	-10.7377
another	-10.7391
//$	-10.7399
Interval	-10.7403
being	-10.7412
Unknown	-10.7416
character	-10.7427
BigInteger	-10.7429
otherwise	-10.7436
Identity	-10.744
PREFIX	-10.7445
Redistributions	-10.7446
Limit	-10.7454
handlers	-10.7455
trim	-10.747
comp	-10.7471
series	-10.7476
la	-10.7476
Word	-10.7481
getText	-10.7484
Hat	-10.7488
Gen	-10.749
Route	-10.7491
please	-10.7494
ma	-10.7495
glob	-10.7496
translate	-10.7502
wx	-10.7505
transport	-10.7506
cf	-10.7517
Connector	-10.7518
Save	-10.7525
Validation	-10.7529
%%	-10.7538
effect	-10.7543
feed	-10.7546
Parent	-10.7547
speed	-10.7556
parsed	-10.756
cancel	-10.756
ads	-10.7575
中	-10.7599
Signature	-10.7606
TABLE	-10.7611
AUTHORS	-10.7612
face	-10.7612
Events	-10.7614
Screen	-10.7619
[]{	-10.7625
attention	-10.7627
[],	-10.7638
Note	-10.7643
css	-10.7653
issue	-10.7654
frames	-10.7655
Composite	-10.7676
fast	-10.7682
nt	-10.769
man	-10.7704
normalize	-10.7712
colors	-10.7714
EPL	-10.7716
pretrained	-10.7718
share	-10.7721
autoconfigure	-10.7722
material	-10.7729
sha	-10.7729
Area	-10.7741
unknown	-10.7746
constraints	-10.7749
Execution	-10.7758
fd	-10.7759
relu	-10.7761
></	-10.7766
pandas	-10.777
revision	-10.7771
sqrt	-10.7773
MODEL	-10.7782
pylint	-10.7797
Tab	-10.7802
helpers	-10.7807
ssl	-10.7808
jetbrains	-10.7818
cards	-10.7835
Arguments	-10.7842
CONTRIBUTORS	-10.7843
className	-10.7846
MAP	-10.7861
getDefault	-10.7869
persons	-10.7869
pr	-10.7872
("--	-10.7873
BlockPos	-10.7878
widgets	-10.7878
InterruptedException	-10.7879
holder	-10.7881
bottom	-10.7883
exchange	-10.7884
phase	-10.7895
Slot	-10.7895
expand	-10.7895
rc	-10.7896
是	-10.7902
Video	-10.7907
bits	-10.7908
SELECT	-10.7911
ver	-10.7911
Valid	-10.7913
harness	-10.7922
gov	-10.7927
place	-10.7937
cd	-10.7939
Export	-10.7942
sf	-10.7942
Copy	-10.7954
CLASS	-10.7963
localhost	-10.797
background	-10.7972
"%	-10.7973
kafka	-10.7974
Segment	-10.7981
NoArgsConstructor	-10.7988
selector	-10.7989
many	-10.799
accompanies	-10.7992
dummy	-10.7994
others	-10.7996
START	-10.8
nb	-10.8015
>*/	-10.8017
Constraint	-10.8027
car	-10.8027
logits	-10.8029
edges	-10.8043
Monitor	-10.8046
nullable	-10.806
reduce	-10.8065
fileName	-10.8073
pb	-10.8077
ci	-10.8082
warnings	-10.8084
expect	-10.8097
snapshot	-10.8098
Direction	-10.8099
Standard	-10.8104
Certificate	-10.8105
Pipeline	-10.8114
hex	-10.8115
SerializedName	-10.812
Program	-10.8122
getData	-10.813
Stat	-10.8132
("%	-10.8138
crypto	-10.814
sources	-10.814
failure	-10.8143
TEXT	-10.8146
flush	-10.8148
HttpServletResponse	-10.8149
router	-10.8161
requireNonNull	-10.8174
Void	-10.8174
获取	-10.8175
Convert	-10.8177
pc	-10.8178
hereby	-10.8179
Authors	-10.818
RUNTIME	-10.8181
literals	-10.8183
Chunk	-10.8185
Inventory	-10.8187
cached	-10.8188
cycle	-10.8188
removed	-10.8188
DataType	-10.819
Val	-10.8191
links	-10.8203
pickle	-10.8213
ls	-10.8221
Media	-10.8221
Classpath	-10.8222
Desc	-10.8222
hook	-10.8224
cos	-10.8226
logic	-10.823
Short	-10.8236
Payload	-10.8237
ta	-10.8242
Results	-10.8246
lab	-10.8249
perform	-10.8255
override	-10.8258
always	-10.8262
Nodes	-10.8263
permit	-10.8263
ir	-10.8268
MIN	-10.8273
Static	-10.8273
priority	-10.8275
CWE	-10.8277
Can	-10.8288
在	-10.8291
Services	-10.8295
sure	-10.8297
Vo	-10.8297
dx	-10.8301
mem	-10.832
Login	-10.8325
they	-10.8328
keras	-10.8335
LLC	-10.8337
数据	-10.8345
Symbol	-10.8348
{}".	-10.8349
VM	-10.8357
hasNext	-10.836
Edit	-10.8362
Render	-10.8368
chart	-10.8368
own	-10.8378
UnsupportedOperationException	-10.8382
:%	-10.8382
startswith	-10.8387
saved	-10.8388
CLAIM	-10.8394
Has	-10.8401
Term	-10.8403
TS	-10.8411
basevalidators	-10.8422
below	-10.8427
noise	-10.8437
dimension	-10.8438
Total	-10.845
tokenizer	-10.8453
SET	-10.8453
Def	-10.8454
shift	-10.846
NOTE	-10.8461
bl	-10.8467
sig	-10.8475
portions	-10.8475
calc	-10.8478
psi	-10.8479
geo	-10.848
rgb	-10.8518
loaded	-10.8519
METHOD	-10.852
calls	-10.8523
bound	-10.8524
Changed	-10.8533
prior	-10.8547
canvas	-10.855
不	-10.8553
fixed	-10.8561
minecraftforge	-10.8568
once	-10.857
Singleton	-10.8575
limitation	-10.8579
zone	-10.8583
Blocks	-10.8585
cert	-10.859
encoded	-10.8592
asset	-10.8602
Case	-10.8602
pid	-10.8606
special	-10.8608
timer	-10.8613
ndarray	-10.8615
Timer	-10.862
individual	-10.8629
Windows	-10.864
uint	-10.8644
bridge	-10.8651
packageJava	-10.8654
obtaining	-10.8654
classmethod	-10.8663
Timeout	-10.8671
course	-10.8681
Snapshot	-10.8685
Authentication	-10.8691
Score	-10.8712
hand	-10.8715
Gui	-10.8718
Structure	-10.8726
matplotlib	-10.874
MESSAGE	-10.875
vertex	-10.8754
bs	-10.8758
"]["	-10.8768
rec	-10.8782
Pre	-10.8785
Runner	-10.8799
"})	-10.8807
products	-10.8807
Argument	-10.8808
信息	-10.8809
Active	-10.8811
browser	-10.8813
inheritDoc	-10.8816
Home	-10.8818
average	-10.8822
TextView	-10.8828
fix	-10.8828
Tools	-10.8834
pages	-10.8843
Last	-10.8846
LinkedList	-10.8851
Creator	-10.8851
Socket	-10.8854
DEALINGS	-10.8875
Development	-10.8876
unused	-10.8885
ER	-10.889
customer	-10.8894
sublicense	-10.8896
]['	-10.891
du	-10.8923
DataFrame	-10.8929
archive	-10.893
charAt	-10.8933
logs	-10.8937
MediaType	-10.8943
whom	-10.8945
substantial	-10.8952
reward	-10.8961
contain	-10.897
ToString	-10.8971
REMOVE	-10.8977
Suite	-10.8977
company	-10.8983
Used	-10.8986
question	-10.8991
actor	-10.8995
Trigger	-10.8999
oauth	-10.9
room	-10.9022
needed	-10.9024
pm	-10.9031
Send	-10.9034
ones	-10.9035
Implementation	-10.9037
Left	-10.904
charset	-10.9041
Spring	-10.9047
stderr	-10.9054
during	-10.9056
Find	-10.9063
plus	-10.9074
=['	-10.9076
Amount	-10.9077
Current	-10.9079
geometry	-10.9091
marker	-10.9092
NONE	-10.9112
NS	-10.9114
tables	-10.9117
ng	-10.9136
furnished	-10.9139
forEach	-10.9148
NONINFRINGEMENT	-10.915
templates	-10.9151
abspath	-10.9156
iv	-10.9157
matching	-10.9159
Price	-10.9165
<<	-10.9173
Site	-10.918
could	-10.918
Interceptor	-10.9185
lat	-10.9188
catalog	-10.9191
hamcrest	-10.9201
ROOT	-10.9202
bounds	-10.9208
DAO	-10.9208
parseInt	-10.9209
Sort	-10.9213
IllegalStateException	-10.9219
Elements	-10.923
deprecated	-10.9232
general	-10.9236
Dimension	-10.9241
minimum	-10.9242
Setup	-10.9252
asyncio	-10.9253
Deprecated	-10.9257
resnet	-10.926
Tags	-10.9263
sentence	-10.9266
Criteria	-10.9268
rb	-10.9269
nl	-10.9272
freq	-10.9276
Ex	-10.9284
Demo	-10.9305
these	-10.931
proc	-10.9317
('\	-10.9325
xyz	-10.933
formatter	-10.9333
Chat	-10.9334
Scale	-10.9335
Work	-10.9343
addAll	-10.9344
days	-10.9351
modification	-10.9353
setId	-10.9356
stub	-10.9359
artificial	-10.936
payment	-10.9372
indent	-10.9375
until	-10.9376
good	-10.9386
provide	-10.9386
Cursor	-10.9393
live	-10.9402
behavior	-10.9402
STATE	-10.9406
dy	-10.9413
Print	-10.9415
fig	-10.9418
RE	-10.9418
camel	-10.9428
Up	-10.943
INT	-10.9433
exclude	-10.9439
getBytes	-10.9439
Classes	-10.9446
ALTER	-10.9446
Contract	-10.9446
{}",	-10.9468
city	-10.947
blue	-10.947
Locale	-10.9475
phone	-10.9477
contract	-10.9478
Paths	-10.9483
AppCompatActivity	-10.9484
cases	-10.9489
most	-10.9491
biz	-10.9501
Head	-10.9512
crop	-10.9512
take	-10.9523
submit	-10.9526
doesn	-10.9533
testng	-10.9534
cross	-10.9539
subscription	-10.9554
Servlet	-10.956
Trace	-10.9573
cr	-10.9581
neo	-10.9587
Switch	-10.9588
PORT	-10.9588
Kind	-10.9596
Res	-10.96
ClassLoader	-10.9608
disk	-10.9613
Tile	-10.9625
(**	-10.9627
CD	-10.9628
prediction	-10.9632
seg	-10.9632
epochs	-10.9637
Stage	-10.9648
Vertex	-10.9649
Rate	-10.9651
Slf	-10.9654
checks	-10.9654
bus	-10.9656
ap	-10.9661
Formatter	-10.9665
let	-10.9672
constraint	-10.9677
choices	-10.9679
Side	-10.968
Debug	-10.9683
partial	-10.9698
define	-10.97
Right	-10.9705
php	-10.9707
Statistics	-10.9708
negative	-10.9709
means	-10.9713
shuffle	-10.9713
arch	-10.9714
getAll	-10.9715
Top	-10.9717
REQUEST	-10.972
uses	-10.9723
=\"	-10.9734
retry	-10.9736
BufferedReader	-10.9738
pip	-10.9738
findViewById	-10.9742
codec	-10.9742
cnt	-10.9746
Scan	-10.9747
small	-10.9752
Progress	-10.9753
Decoder	-10.9754
country	-10.976
']:	-10.976
month	-10.9764
const	-10.9765
questions	-10.9768
EMPTY	-10.9768
ro	-10.9795
tar	-10.9796
Named	-10.9796
versions	-10.9798
Lookup	-10.9799
ind	-10.9799
'][	-10.9799
tp	-10.9802
scripts	-10.9806
bi	-10.9808
IMS	-10.9819
direct	-10.9819
containsKey	-10.983
Parse	-10.9831
serial	-10.9835
NotImplementedError	-10.9837
Chain	-10.9839
translation	-10.9852
University	-10.9854
!");	-10.9855
lin	-10.9857
transfer	-10.9865
astype	-10.9866
amazon	-10.9884
Span	-10.9884
"):	-10.9885
rect	-10.9885
Ltd	-10.9885
met	-10.9893
'/	-10.9898
gs	-10.9901
时	-10.9903
''	-10.9904
SpringBootTest	-10.9909
characters	-10.9912
devices	-10.9912
CLIENT	-10.9919
Arg	-10.992
currentTimeMillis	-10.992
、	-10.9929
US	-10.9931
workers	-10.9931
tv	-10.9933
gc	-10.9937
Make	-10.9941
Sum	-10.9946
loads	-10.9949
gateway	-10.9957
threads	-10.9961
External	-10.9967
pp	-10.997
PROPERTY	-10.9972
返回	-10.9989
Native	-10.9991
AppConfig	-10.9991
Delegate	-10.9999
JsonObject	-11.0004
bc	-11.0034
swt	-11.0034
cap	-11.0035
choose	-11.0059
LIST	-11.0059
Modifier	-11.0061
stored	-11.0063
mul	-11.0065
ArgumentParser	-11.0069
Stop	-11.007
setuptools	-11.007
MODE	-11.0081
redirect	-11.009
javafx	-11.0102
STATUS	-11.0116
dumps	-11.0122
Missing	-11.0123
ClassName	-11.0125
TOKEN	-11.0125
needs	-11.0129
assertj	-11.0131
Car	-11.0132
和	-11.0136
complex	-11.0137
Operations	-11.0151
derived	-11.0156
Two	-11.0158
ResourceLocation	-11.0163
Subscription	-11.0175
Close	-11.0182
Ip	-11.0183
Co	-11.0187
Transfer	-11.0192
Expected	-11.0193
sec	-11.0202
Full	-11.0212
registered	-11.0214
Move	-11.0214
Asset	-11.0216
Place	-11.0223
tm	-11.0232
unchecked	-11.0243
OAuth	-11.0244
databind	-11.0248
facebook	-11.0249
cookie	-11.0252
green	-11.0262
deployment	-11.0262
sensor	-11.0277
Instruction	-11.0277
vol	-11.0289
Rest	-11.0293
gamma	-11.0293
deleted	-11.0304
slice	-11.0304
Algorithm	-11.0305
pixel	-11.0305
gwt	-11.0309
Raw	-11.0311
lo	-11.0311
documents	-11.0312
po	-11.032
alert	-11.0331
precision	-11.0338
Split	-11.0342
ct	-11.0346
serialization	-11.0349
members	-11.0358
blog	-11.0359
rotation	-11.0368
SERVICE	-11.0373
Generate	-11.0387
dependency	-11.0391
DATE	-11.04
testmod	-11.0405
Immutable	-11.0406
every	-11.0416
deserialize	-11.0419
accompanied	-11.0449
rm	-11.045
cam	-11.0456
\":	-11.0459
pg	-11.0462
MM	-11.0467
indexOf	-11.0471
visible	-11.0473
MetaData	-11.048
startsWith	-11.0483
SDK	-11.0485
Bot	-11.0487
Headers	-11.0487
XmlElement	-11.0491
robot	-11.0494
Analysis	-11.0498
backup	-11.0501
evaluation	-11.0503
would	-11.0532
dic	-11.0541
Partition	-11.0546
fname	-11.055
Loss	-11.0554
rtype	-11.0557
Hook	-11.0562
too	-11.0563
kit	-11.0565
jobs	-11.0567
Animation	-11.0568
Testing	-11.0572
Success	-11.058
Failure	-11.0584
utilities	-11.0597
ti	-11.0602
GROUP	-11.0603
Dependency	-11.0613
NUM	-11.0614
COLOR	-11.0616
bytedeco	-11.0623
cas	-11.0628
Join	-11.0638
SERVER	-11.0639
theta	-11.0639
Schedule	-11.0647
resize	-11.0649
pay	-11.0661
configs	-11.0663
transformer	-11.0671
recipe	-11.0677
Management	-11.0682
Owner	-11.0688
loading	-11.0692
Next	-11.0695
hub	-11.0698
LENGTH	-11.0709
ab	-11.071
newInstance	-11.0712
provides	-11.0716
Worker	-11.0716
patterns	-11.0719
texture	-11.0724
Dummy	-11.0726
Accessor	-11.0726
Lambda	-11.0733
retain	-11.074
assign	-11.0745
hi	-11.0751
orig	-11.0755
workspace	-11.0756
-%	-11.076
({"	-11.0764
Available	-11.0772
>\	-11.0782
到	-11.0788
{}'.	-11.0789
Literal	-11.079
Employee	-11.079
Stub	-11.0795
pairs	-11.0801
dims	-11.0805
soft	-11.0818
Street	-11.082
GmbH	-11.0823
implemented	-11.0825
Per	-11.0827
whole	-11.0829
categories	-11.0831
Actions	-11.0832
hostname	-11.0839
Texture	-11.0839
am	-11.084
functional	-11.084
[])	-11.0849
Vec	-11.085
Rect	-11.0852
Transport	-11.0853
projects	-11.0866
cols	-11.0885
misc	-11.0889
XmlType	-11.0894
ImportError	-11.0899
positive	-11.09
Bucket	-11.0903
Tracker	-11.0905
nested	-11.0909
Download	-11.0927
fa	-11.0931
btn	-11.0933
Exchange	-11.0936
injection	-11.0947
stock	-11.0948
')),	-11.095
inst	-11.0967
Issue	-11.0967
PM	-11.0971
tick	-11.0972
tb	-11.0972
coords	-11.0977
Signal	-11.0981
align	-11.0987
maps	-11.0994
Series	-11.0995
hl	-11.0996
six	-11.0996
Revision	-11.1008
©	-11.101
Marker	-11.1011
Problem	-11.1015
TextField	-11.1016
RequestId	-11.1034
defaultValue	-11.1036
TypeError	-11.1038
flask	-11.1039
stringValue	-11.1048
predictions	-11.1051
statistics	-11.1052
ObjectMapper	-11.1052
UN	-11.1054
animation	-11.1056
coordinates	-11.1065
predicate	-11.1065
concat	-11.1068
queries	-11.1069
Instant	-11.1069
parallel	-11.107
Zone	-11.1072
Power	-11.1085
[[	-11.1086
urllib	-11.1086
Distance	-11.1089
creating	-11.1095
ForeignKey	-11.11
jpg	-11.1101
CDDL	-11.1108
terminal	-11.1111
getContext	-11.1118
Codec	-11.1124
Enable	-11.1125
accuracy	-11.1131
Payment	-11.1134
well	-11.1136
`,	-11.1139
Checker	-11.1146
Initial	-11.1149
counts	-11.115
Mask	-11.1152
ra	-11.1154
xc	-11.1162
Describe	-11.1163
Groups	-11.1172
:\	-11.1176
GetMapping	-11.1177
getX	-11.1177
capacity	-11.1199
Backend	-11.1205
]):	-11.121
Credentials	-11.1215
Programming	-11.1217
getCurrent	-11.1218
construct	-11.1224
ant	-11.123
vertx	-11.1237
Methods	-11.1239
sk	-11.124
pathlib	-11.1259
corresponding	-11.1262
sourceforge	-11.1267
wiki	-11.1269
pin	-11.1274
rl	-11.1278
sets	-11.1283
Volume	-11.1284
division	-11.1285
APP	-11.1288
jaxb	-11.1293
chars	-11.1296
shutdown	-11.1297
tk	-11.1297
用户	-11.1303
lazy	-11.1313
Bitmap	-11.1314
Extractor	-11.1314
closed	-11.1319
finish	-11.1319
/>	-11.1324
数	-11.1329
thrown	-11.1335
Producer	-11.1342
inv	-11.1346
分	-11.1347
separator	-11.1347
]])	-11.1359
lm	-11.1359
deep	-11.1363
OP	-11.1363
abilities	-11.1374
Camera	-11.1381
upgrade	-11.1383
retrieve	-11.1386
certificate	-11.1387
Center	-11.1394
bg	-11.1399
Conf	-11.1399
classification	-11.1402
schemas	-11.1404
experiment	-11.1411
GUI	-11.1415
repeat	-11.1417
issues	-11.142
mysql	-11.1423
nothing	-11.1425
uniform	-11.1433
ST	-11.1437
EventListener	-11.1447
works	-11.1449
ResultSet	-11.1451
setProperty	-11.1452
vals	-11.1455
providers	-11.147
mi	-11.1472
NOTICES	-11.1473
large	-11.1479
ignored	-11.1484
il	-11.1486
apple	-11.1491
MD	-11.1493
peer	-11.1493
Html	-11.1496
anchor	-11.15
Diff	-11.1511
getPath	-11.1512
Points	-11.1518
Rectangle	-11.1519
depends	-11.1535
ES	-11.1537
px	-11.1546
一	-11.1553
receive	-11.1559
smart	-11.1564
literal	-11.1564
bert	-11.157
()[	-11.1573
virtual	-11.1573
类	-11.1573
Flags	-11.1576
JpaRepository	-11.1579
tqdm	-11.1579
atom	-11.1584
MPL	-11.1586
wb	-11.159
ImmutableList	-11.159
ptr	-11.1592
inf	-11.1593
wallet	-11.1596
sw	-11.1599
gradle	-11.16
={"	-11.1601
figure	-11.1603
使用	-11.1604
RGB	-11.1607
variant	-11.1607
bug	-11.161
Workflow	-11.1619
********************	-11.1622
Should	-11.1624
clients	-11.1626
border	-11.163
Geo	-11.1637
dm	-11.1639
Subject	-11.164
Phase	-11.1641
classifier	-11.1645
processed	-11.1647
Proto	-11.165
inside	-11.1657
parametrize	-11.1659
RestController	-11.1663
Cmd	-11.1684
Redis	-11.1684
Observer	-11.169
elem	-11.1696
urlpatterns	-11.1701
axes	-11.1706
hit	-11.171
Gateway	-11.171
currency	-11.1713
hr	-11.1714
launch	-11.173
LocalDateTime	-11.1736
solver	-11.1736
enter	-11.1736
BLOCK	-11.1738
Deployment	-11.1743
mac	-11.1745
Recipe	-11.1751
disabled	-11.1756
FORMAT	-11.1759
baomidou	-11.1769
Artifact	-11.1771
Ignore	-11.1779
Catalog	-11.1793
comments	-11.1797
sqlalchemy	-11.1798
Collector	-11.18
Bit	-11.18
Req	-11.1806
permitted	-11.1808
Connect	-11.1809
Alert	-11.181
Exp	-11.1819
Alias	-11.1824
mybatisplus	-11.1826
assertNull	-11.1832
sep	-11.1836
Scene	-11.1838
ability	-11.1842
Insert	-11.185
wrapped	-11.1851
positions	-11.1855
Enter	-11.1856
jdk	-11.1859
Choice	-11.1869
rd	-11.187
Audio	-11.1872
'<	-11.1872
Observable	-11.1882
Clause	-11.1899
FileName	-11.1901
filepath	-11.1904
一个	-11.1904
Scheduler	-11.1906
NotFoundException	-11.1917
dec	-11.1923
big	-11.1929
embeddings	-11.193
star	-11.1934
Light	-11.1935
Dictionary	-11.1936
ServiceImpl	-11.1936
viewer	-11.1969
Other	-11.1973
codegen	-11.1975
artifact	-11.1975
never	-11.1982
transpose	-11.1984
Fast	-11.1986
Rules	-11.1994
sm	-11.1998
known	-11.1999
JsonInclude	-11.2004
equalsIgnoreCase	-11.2012
connected	-11.2017
值	-11.2018
manual	-11.202
syntax	-11.2021
slug	-11.2024
beam	-11.2031
Track	-11.2037
Verify	-11.204
EventHandler	-11.2041
AST	-11.2042
energy	-11.2044
candidate	-11.2044
tgt	-11.2045
mb	-11.2048
Relation	-11.2049
DIRECT	-11.205
'},	-11.2054
stmt	-11.2056
Period	-11.2058
ping	-11.206
READ	-11.2061
":"	-11.2062
scalar	-11.2076
SERVICES	-11.2077
fmt	-11.2083
know	-11.209
/%	-11.2091
UP	-11.2095
creation	-11.2099
Validate	-11.2102
benchmark	-11.2104
digest	-11.2107
Cost	-11.2108
leetcode	-11.2113
lists	-11.2116
Console	-11.2118
ann	-11.2118
Repo	-11.212
XmlAccessorType	-11.2124
ML	-11.2126
hu	-11.2126
resolver	-11.2132
xy	-11.2144
flat	-11.2148
Logging	-11.2148
Initialize	-11.215
XmlAccessType	-11.2152
Extended	-11.2155
parsing	-11.2157
Lib	-11.2159
cut	-11.216
geom	-11.2167
CC	-11.2172
cal	-11.2178
vaadin	-11.2179
equalTo	-11.2186
bootstrap	-11.2188
HttpStatus	-11.2195
community	-11.2196
]],	-11.2196
'^	-11.2198
wrong	-11.2198
trainer	-11.2219
getParent	-11.2224
")));	-11.2225
APPLICATION	-11.2228
SPECIAL	-11.2238
IT	-11.2239
particular	-11.2243
automatically	-11.2244
fire	-11.2244
Integration	-11.2245
jadx	-11.2249
requested	-11.225
mobile	-11.2251
compareTo	-11.2255
UPDATE	-11.2271
neg	-11.2272
Ext	-11.2282
Variant	-11.2285
类型	-11.2287
Actor	-11.2287
poll	-11.2289
Cannot	-11.2294
sklearn	-11.2295
LOSS	-11.2296
supports	-11.2297
Encoding	-11.2308
Struct	-11.2322
Attr	-11.2325
installed	-11.2334
Include	-11.2345
bpy	-11.2346
resolution	-11.235
problems	-11.2357
enterprise	-11.2367
docker	-11.2369
Chart	-11.2372
flip	-11.2373
COUNT	-11.2381
HttpResponse	-11.2398
got	-11.24
Compute	-11.2401
reading	-11.2404
Using	-11.2408
remaining	-11.2415
--------------	-11.2419
roles	-11.242
LINE	-11.242
MS	-11.2426
ARE	-11.2428
Registration	-11.2431
mods	-11.2436
/*<	-11.2438
DELETE	-11.2468
calendar	-11.2471
sparse	-11.2475
shop	-11.2476
scheme	-11.2477
Sequential	-11.2482
square	-11.2484
Drawable	-11.2489
selenium	-11.2492
proj	-11.2494
sound	-11.2496
IBM	-11.2496
Machine	-11.2497
SWT	-11.2502
accounts	-11.2508
least	-11.2509
starting	-11.251
relation	-11.2512
ResponseEntity	-11.2512
frequency	-11.2513
Transition	-11.2517
criteria	-11.2521
started	-11.2521
vs	-11.2521
Authorization	-11.2542
optim	-11.2549
ba	-11.255
ById	-11.2561
registration	-11.2572
ray	-11.2583
producer	-11.2583
Student	-11.2588
trade	-11.2589
JS	-11.2592
Execute	-11.2594
randint	-11.2595
online	-11.2595
losses	-11.2599
design	-11.26
Filters	-11.2605
Defaults	-11.2608
tail	-11.2611
getInt	-11.2613
faces	-11.2616
tracker	-11.2616
deletion	-11.2636
enumeration	-11.2647
pub	-11.2647
AB	-11.2657
ga	-11.2666
enc	-11.267
Framework	-11.2675
rp	-11.2676
getResource	-11.2676
callable	-11.2677
iteration	-11.2677
detection	-11.2682
Based	-11.2682
manifest	-11.2692
dex	-11.2692
echo	-11.2692
Theme	-11.2699
Given	-11.2699
Preconditions	-11.271
WHERE	-11.2712
Columns	-11.2713
dispatch	-11.2721
AWS	-11.2728
wav	-11.2729
Func	-11.2729
family	-11.2731
Cookie	-11.2741
Back	-11.2743
generation	-11.2745
something	-11.2747
initializer	-11.2749
WAY	-11.2752
utility	-11.2754
getY	-11.2757
Multiple	-11.2769
receiver	-11.2769
UNKNOWN	-11.2774
SHA	-11.2779
QName	-11.2779
Day	-11.2781
sampler	-11.2787
preview	-11.2789
INCIDENTAL	-11.2792
getAttribute	-11.2792
Some	-11.2794
backbone	-11.2797
('/	-11.2802
toArray	-11.2802
CREATE	-11.2803
有	-11.2818
solve	-11.2824
=["	-11.2829
fhir	-11.2834
INDEX	-11.2838
Secret	-11.284
STRICT	-11.2848
lst	-11.2849
yet	-11.285
HOST	-11.2851
uni	-11.2856
spark	-11.2858
arange	-11.2861
SUCCESS	-11.2864
article	-11.2865
currently	-11.2869
Lists	-11.2871
-------	-11.2883
vertices	-11.2887
prime	-11.2889
gradient	-11.289
getStatus	-11.2891
Reason	-11.2896
"/>	-11.2898
Transactional	-11.2899
Mono	-11.2899
pytorch	-11.2906
LocalDate	-11.2909
FLAGS	-11.2909
organization	-11.2914
Minecraft	-11.2915
goal	-11.2915
sheet	-11.2918
sess	-11.2919
Cast	-11.293
audit	-11.2945
Features	-11.2948
Len	-11.2951
对象	-11.2954
参数	-11.2962
HttpRequest	-11.2968
tenant	-11.2969
Push	-11.2971
responses	-11.2973
destroy	-11.2974
portal	-11.2975
quality	-11.2979
newBuilder	-11.2981
surface	-11.299
cover	-11.2996
pojo	-11.2997
kw	-11.2999
detect	-11.3002
shutil	-11.3006
robovm	-11.3008
={'	-11.3008
drawable	-11.3015
orm	-11.3018
AT	-11.3027
completed	-11.3027
scanner	-11.3036
isValid	-11.3038
Speed	-11.3039
inference	-11.3042
bank	-11.3043
ol	-11.3046
Apply	-11.3053
Browser	-11.3057
rev	-11.306
finished	-11.3078
requirements	-11.3078
Col	-11.3082
fun	-11.3085
Warning	-11.3085
DAMAGE	-11.3092
用	-11.3092
broker	-11.3094
atomic	-11.3095
mailto	-11.3096
configured	-11.3097
接口	-11.3103
RequestBody	-11.3106
dataSource	-11.3116
TileEntity	-11.3119
getDescription	-11.3121
allows	-11.3124
sink	-11.3129
Virtual	-11.3129
three	-11.3137
Geometry	-11.3137
EVEN	-11.3143
grpc	-11.3147
um	-11.3153
scipy	-11.3158
locations	-11.3162
Graphics	-11.3168
mol	-11.3169
publisher	-11.3175
ListNode	-11.3175
Publisher	-11.318
maven	-11.318
serializers	-11.3183
Qt	-11.3183
Priority	-11.3186
pw	-11.3194
rot	-11.3195
查询	-11.3195
pro	-11.3196
ii	-11.32
assertRaises	-11.3209
toLowerCase	-11.321
Limited	-11.3214
Mail	-11.3216
AD	-11.322
gr	-11.3222
studio	-11.3224
Archive	-11.3225
keywords	-11.3228
representing	-11.3229
bouncycastle	-11.3232
<?>>	-11.3235
black	-11.3237
capture	-11.3239
synthetic	-11.3242
---	-11.3243
Seq	-11.3245
listeners	-11.3253
ByteArrayOutputStream	-11.3254
Evaluator	-11.3257
serialized	-11.3266
timezone	-11.3277
Selected	-11.328
Entries	-11.3281
Sink	-11.3287
CompletableFuture	-11.3293
ParseException	-11.3296
了	-11.3298
Found	-11.3299
Axis	-11.3299
INDIRECT	-11.3305
windows	-11.331
af	-11.3315
fb	-11.3318
fieldName	-11.3335
conversion	-11.3336
Upload	-11.3339
restore	-11.3342
bo	-11.3343
student	-11.3346
BlockState	-11.3347
Receiver	-11.3347
Primitive	-11.3351
Preferences	-11.3361
OUTPUT	-11.3362
SSL	-11.3367
tearDown	-11.3368
SUCH	-11.337
Sign	-11.3382
Canvas	-11.3388
Master	-11.34
visited	-11.3403
Draw	-11.3404
getSimpleName	-11.341
hive	-11.3416
Shell	-11.3416
Merge	-11.3416
Matchers	-11.342
xp	-11.3423
directly	-11.3425
Inner	-11.343
easy	-11.3431
hide	-11.3431
Shared	-11.3431
CONSEQUENTIAL	-11.3442
Contains	-11.3442
REST	-11.3443
authorization	-11.3443
Called	-11.3446
ready	-11.3458
Branch	-11.3458
Specification	-11.3461
Utilities	-11.3464
vis	-11.3468
implement	-11.3472
Keyword	-11.3472
digits	-11.3474
BUSINESS	-11.3475
filtered	-11.3482
tz	-11.3483
文件	-11.3484
PY	-11.3488
Preference	-11.3489
Const	-11.3489
getItem	-11.3491
Finder	-11.3497
Pass	-11.3501
EDIT	-11.3505
white	-11.3511
reproduce	-11.3518
Cancel	-11.3522
Router	-11.3527
balance	-11.3528
Sys	-11.3532
NUMBER	-11.3532
Ad	-11.3536
ix	-11.354
DataSet	-11.3542
Processing	-11.3542
There	-11.3542
pow	-11.3544
yang	-11.3547
Variables	-11.3559
alt	-11.3565
Sensor	-11.357
AlterField	-11.3571
CONTENT	-11.3578
ascii	-11.3579
Mark	-11.3583
turn	-11.359
rotate	-11.3591
pointer	-11.3595
ViewGroup	-11.3599
decimal	-11.36
wsgi	-11.3602
MODULE	-11.3605
contained	-11.3614
Course	-11.3614
sin	-11.3617
MSG	-11.3619
ignite	-11.3621
lon	-11.3624
Down	-11.3634
na	-11.3635
Javadoc	-11.3638
der	-11.3642
observation	-11.3648
represents	-11.3649
NODE	-11.365
scenario	-11.3656
shown	-11.3656
AUTH	-11.3659
方法	-11.3665
mass	-11.3666
heads	-11.3667
Threshold	-11.3669
Bind	-11.3674
MAXIMS	-11.3675
Behavior	-11.3675
SA	-11.3691
dns	-11.3691
dirs	-11.37
PROFITS	-11.37
inc	-11.3702
executable	-11.3705
设置	-11.3707
Attachment	-11.3708
throwable	-11.3714
Ability	-11.3718
Normal	-11.3721
Complete	-11.3721
working	-11.3732
preds	-11.3735
Utility	-11.3735
phi	-11.3741
endpoints	-11.3745
Ui	-11.3754
va	-11.3758
LEFT	-11.3764
deploy	-11.3765
OpenAPI	-11.3765
NEGLIGENCE	-11.3766
hot	-11.3772
sr	-11.3774
att	-11.3775
IMAGE	-11.3784
coord	-11.3786
legend	-11.3788
lastName	-11.38
rep	-11.3802
Click	-11.3804
rx	-11.3805
manage	-11.381
Fake	-11.3812
SOURCE	-11.3815
codes	-11.3824
describe	-11.3827
AI	-11.3829
dat	-11.3829
Aware	-11.3836
setattr	-11.384
prompt	-11.3841
mx	-11.3842
sqlite	-11.3843
sizes	-11.3849
Redistribution	-11.3851
credential	-11.3854
!")	-11.386
bp	-11.3861
Sound	-11.3866
INPUT	-11.3866
GOODS	-11.3875
)])	-11.3876
Decimal	-11.3878
Permissions	-11.3885
jface	-11.3897
quote	-11.39
Prop	-11.3902
Loop	-11.3904
spaces	-11.3905
Shadow	-11.3906
tcp	-11.3908
Paint	-11.391
Viewer	-11.3923
TestUtils	-11.3942
POSSIBILITY	-11.3942
THEORY	-11.3947
表	-11.3957
Business	-11.3965
checker	-11.3968
au	-11.3969
ty	-11.3972
Original	-11.3973
NullPointerException	-11.3975
ADVISED	-11.3988
{},	-11.399
gz	-11.3991
governed	-11.4003
ft	-11.4003
om	-11.4004
googleads	-11.4004
INVALID	-11.4011
Pay	-11.4014
SUBSTITUTE	-11.4016
updates	-11.4023
Mutable	-11.4026
nu	-11.4028
StringBuffer	-11.4033
Release	-11.4034
quantity	-11.4034
CAUSED	-11.4037
EXEMPLARY	-11.4038
kubernetes	-11.4038
Elasticsearch	-11.4047
getCode	-11.4047
prod	-11.4049
transition	-11.4051
ssh	-11.4051
cube	-11.4052
tableName	-11.4057
上	-11.4058
Put	-11.4067
PROCUREMENT	-11.407
pending	-11.4071
DISCLAIMED	-11.4077
Fixed	-11.4078
discovery	-11.4081
fx	-11.4082
Analyzer	-11.4086
Plot	-11.4094
decorator	-11.4097
flatten	-11.4101
Feed	-11.4103
Private	-11.4106
pyplot	-11.4106
getWidth	-11.4107
basename	-11.4109
HOWEVER	-11.411
Detector	-11.4112
look	-11.4114
Final	-11.4114
InputStreamReader	-11.4115
party	-11.4118
名称	-11.4119
Nested	-11.4124
Delay	-11.413
requestId	-11.413
modifiers	-11.4134
bd	-11.4134
sampling	-11.4136
getHeight	-11.4137
AddField	-11.4142
clock	-11.4144
Article	-11.4147
INTERRUPTION	-11.4147
escape	-11.4148
instructions	-11.4152
nor	-11.4153
very	-11.4154
amazonaws	-11.4155
formatted	-11.4156
Bad	-11.416
ob	-11.4161
EventType	-11.4171
mt	-11.4172
Room	-11.4172
Functions	-11.4179
Without	-11.4181
sphinx	-11.4184
Principal	-11.4184
emf	-11.4186
trend	-11.4191
floor	-11.4195
nx	-11.4195
dr	-11.4203
Organization	-11.4208
ph	-11.4211
entrySet	-11.4214
checked	-11.4215
connections	-11.4216
fabric	-11.4217
si	-11.422
Provides	-11.4222
attn	-11.423
getUser	-11.4236
instruction	-11.4246
EqualsAndHashCode	-11.4252
basis	-11.4252
initialized	-11.4255
poly	-11.4256
theme	-11.4264
FileSystem	-11.4265
Uuid	-11.427
outer	-11.4272
FF	-11.4272
quarkus	-11.4279
initialization	-11.4281
PASSWORD	-11.4282
Play	-11.4287
toList	-11.4288
QtWidgets	-11.429
abstractmethod	-11.43
CONF	-11.4304
masks	-11.4311
softmax	-11.4311
Face	-11.4316
ibatis	-11.4317
converted	-11.4319
licensing	-11.432
adj	-11.4321
plain	-11.4323
applied	-11.4324
Delta	-11.4327
those	-11.4328
BO	-11.4329
rv	-11.4331
specify	-11.4332
dis	-11.4335
half	-11.4336
formats	-11.4337
ka	-11.4339
xff	-11.4343
coordinate	-11.4351
ASN	-11.4358
Commit	-11.4363
getTime	-11.4366
backward	-11.4376
magic	-11.4378
dimensions	-11.438
列表	-11.4381
Deserializer	-11.4381
Locator	-11.4383
ent	-11.4385
pts	-11.4389
setContentView	-11.439
reload	-11.4391
OBJECT	-11.4396
FileInputStream	-11.4398
cy	-11.4401
CACHE	-11.4401
numberOf	-11.4402
jwt	-11.4407
para	-11.441
Props	-11.4411
xf	-11.4412
Assignment	-11.4412
netbeans	-11.4413
Errors	-11.4422
logical	-11.4423
ErrorCode	-11.4424
planes	-11.4425
PROJECT	-11.4425
DE	-11.443
getSource	-11.4434
Changes	-11.4435
coco	-11.4436
Weight	-11.4437
osgi	-11.4446
PER	-11.4449
Patch	-11.4456
episode	-11.4462
Bridge	-11.4466
ATTR	-11.4472
startTime	-11.4474
TIMEOUT	-11.4479
classInstance	-11.4481
placeholder	-11.4488
curve	-11.4491
Train	-11.4494
opendaylight	-11.45
({'	-11.4501
imgs	-11.4503
Zero	-11.4512
were	-11.4524
TEMPLATE	-11.4525
(!(	-11.4526
gg	-11.4534
preferences	-11.4537
readLine	-11.4538
margin	-11.4543
effects	-11.4545
Records	-11.4546
Tx	-11.4548
compat	-11.4548
Could	-11.4553
Destination	-11.4554
xpath	-11.4561
migration	-11.4561
Backup	-11.4563
RecyclerView	-11.4564
ITEM	-11.4566
arm	-11.4567
ByteBuf	-11.4573
xx	-11.4573
Whether	-11.4576
calling	-11.4581
fml	-11.4586
performance	-11.4586
building	-11.459
子	-11.4593
desired	-11.4594
notes	-11.4596
lp	-11.4597
handling	-11.4599
ONE	-11.4619
invocation	-11.4625
builtin	-11.4626
indexes	-11.4631
epsilon	-11.4636
Upgrade	-11.4637
messaging	-11.4638
将	-11.4639
dfs	-11.464
attach	-11.464
cleanup	-11.4641
aggregate	-11.4643
PrintWriter	-11.4648
xs	-11.465
Calculator	-11.4651
TF	-11.4656
CardType	-11.4657
springboot	-11.4659
FS	-11.4662
intValue	-11.467
MC	-11.4671
MainActivity	-11.4676
temperature	-11.4679
ql	-11.468
dense	-11.4682
Bounds	-11.4689
increment	-11.4692
[]>	-11.4694
thing	-11.4701
Lines	-11.4706
references	-11.4706
Super	-11.4711
Second	-11.4712
lucene	-11.4722
PARAM	-11.4723
/*</	-11.4725
mybatis	-11.4727
still	-11.4729
Sender	-11.473
ur	-11.4734
mf	-11.4737
unsqueeze	-11.4739
todo	-11.4742
Regex	-11.475
出	-11.4753
mouse	-11.4756
sl	-11.4768
LGPL	-11.4768
coin	-11.4768
Mozilla	-11.4769
Binder	-11.4772
CustomType	-11.4774
streams	-11.4779
tri	-11.4784
Help	-11.4793
swap	-11.4794
dashboard	-11.4795
Embedded	-11.4797
might	-11.48
MenuItem	-11.4804
classpath	-11.4807
dataloader	-11.4816
Drop	-11.4819
ViewHolder	-11.4819
fi	-11.4826
again	-11.4827
名	-11.4837
COLUMN	-11.4845
paint	-11.4846
dn	-11.485
CharSequence	-11.4859
是否	-11.4861
MB	-11.4862
websocket	-11.4864
definitions	-11.487
Mesh	-11.4872
timedelta	-11.4877
extern	-11.4879
linked	-11.4879
executed	-11.4891
Expose	-11.4891
SETTINGS	-11.4898
velocity	-11.4903
frappe	-11.4905
Retry	-11.4905
roi	-11.4905
AG	-11.4906
movie	-11.4909
firstName	-11.491
cu	-11.4915
Kafka	-11.4921
lgpl	-11.4921
inspect	-11.4923
arrays	-11.4923
pixels	-11.4927
simulation	-11.4929
measure	-11.493
nan	-11.4939
Additional	-11.4939
modifications	-11.4942
sel	-11.4945
iou	-11.4946
singleton	-11.4948
AUTO	-11.4954
Creation	-11.4957
Notify	-11.4958
ki	-11.4961
Real	-11.4962
RemoteException	-11.4963
criterion	-11.4965
experimental	-11.4966
getMax	-11.497
Pack	-11.4972
reactor	-11.4973
CSV	-11.4983
percent	-11.4988
subscribe	-11.4996
nlp	-11.5006
sym	-11.5008
hour	-11.5012
Redwood	-11.5017
Accept	-11.5018
Loading	-11.5018
Modify	-11.5024
ISO	-11.5027
air	-11.5028
primitive	-11.5029
third	-11.5037
Bench	-11.5037
keySet	-11.5041
Benchmark	-11.5045
dsl	-11.5051
mv	-11.5052
bf	-11.5053
normalized	-11.5055
threading	-11.5055
cz	-11.5058
StandardCharsets	-11.5068
Factor	-11.5072
yes	-11.5074
backends	-11.5075
det	-11.5078
rf	-11.5078
Background	-11.5082
pull	-11.5082
Tasks	-11.5083
extended	-11.5095
union	-11.5104
Neo	-11.5105
lifecycle	-11.5112
后	-11.5112
Parkway	-11.5113
GT	-11.5117
ser	-11.5119
sonar	-11.5121
ha	-11.5123
Shores	-11.5124
ordered	-11.5125
oc	-11.5126
indicate	-11.5128
Sim	-11.5128
Classifier	-11.5131
iterations	-11.5132
spatial	-11.5134
Toast	-11.5138
RIGHT	-11.5138
photo	-11.5141
fl	-11.5143
projection	-11.5147
Company	-11.5149
attack	-11.5155
promote	-11.5158
market	-11.5163
Components	-11.5163
Refresh	-11.5165
resume	-11.5173
Stock	-11.5174
SE	-11.5176
adjust	-11.5179
certain	-11.518
DataLoader	-11.5183
hp	-11.5183
Distributed	-11.5186
Filename	-11.519
Construct	-11.5197
music	-11.5197
findBy	-11.5199
Running	-11.5205
Presenter	-11.5207
Credential	-11.521
fh	-11.5212
runs	-11.5214
rst	-11.5216
rdf	-11.5217
managed	-11.5221
mkdir	-11.5222
lost	-11.5224
"]:	-11.5227
makedirs	-11.5229
/',	-11.5232
Workspace	-11.5233
Amazon	-11.5233
PI	-11.5234
"/"	-11.5238
BaseModel	-11.5238
RESOURCE	-11.5243
completion	-11.525
coverage	-11.5252
Charset	-11.5252
front	-11.5253
validators	-11.5255
Fetch	-11.5261
ko	-11.5262
Unique	-11.5263
Children	-11.5268
oss	-11.528
Translator	-11.5284
extractor	-11.5285
Pin	-11.5291
creator	-11.5292
="{	-11.5293
symbols	-11.53
SP	-11.5301
[:-	-11.5306
learn	-11.5311
agreement	-11.5312
getParameter	-11.5315
Direct	-11.5316
fg	-11.5316
subset	-11.5323
unless	-11.5336
FAILED	-11.5336
Indicator	-11.5336
specification	-11.5337
Reset	-11.5339
encrypt	-11.534
LONG	-11.534
letter	-11.5346
Parcel	-11.5348
website	-11.5352
getenv	-11.5352
levels	-11.5358
Rel	-11.5361
cells	-11.5369
Question	-11.5372
ja	-11.5372
pprint	-11.5373
fm	-11.538
joint	-11.5383
Documented	-11.5389
bt	-11.5393
AM	-11.54
wso	-11.5401
DESCRIPTION	-11.5403
attachment	-11.5408
CF	-11.5412
对	-11.5412
Decorator	-11.5412
Clear	-11.5412
ni	-11.5414
preference	-11.5418
\":\"	-11.5426
userName	-11.5428
micro	-11.5431
ParametersAreNonnullByDefault	-11.5431
assets	-11.5434
配置	-11.5436
{})	-11.5438
Manifest	-11.5439
study	-11.5451
ImageView	-11.5459
slow	-11.5461
Equals	-11.5463
mr	-11.5465
Templates	-11.5471
salt	-11.5476
]["	-11.5483
Board	-11.5486
xmlbeans	-11.5487
libs	-11.5489
leaf	-11.5495
Off	-11.5499
wp	-11.5502
emb	-11.551
inputStream	-11.5512
arc	-11.5513
walk	-11.5517
执行	-11.5517
mongodb	-11.5518
Patient	-11.5518
ibm	-11.5518
chr	-11.5519
inter	-11.5521
Initializer	-11.5523
':'	-11.5531
nbt	-11.5533
Capability	-11.5536
Checks	-11.5536
Answer	-11.554
Blob	-11.5549
datasource	-11.555
minutes	-11.5552
PDF	-11.557
Audit	-11.5572
getVersion	-11.5576
nr	-11.5578
determine	-11.5591
composite	-11.5592
omg	-11.5598
SC	-11.5599
callbacks	-11.5601
RED	-11.5603
qs	-11.5603
Lang	-11.5603
systems	-11.5617
Depth	-11.5619
删除	-11.5622
JPanel	-11.5625
rename	-11.5626
iso	-11.563
PROP	-11.5631
Persistence	-11.5634
numeric	-11.5635
BaseMapper	-11.564
entropy	-11.5642
Compiler	-11.5643
segments	-11.5643
circle	-11.5647
allocate	-11.5649
Hex	-11.5653
Commands	-11.5657
detector	-11.5657
adding	-11.5659
qq	-11.5663
([[	-11.5668
necessary	-11.567
EntityType	-11.5672
listing	-11.5681
FLAG	-11.5686
middleware	-11.5687
&#	-11.5689
TRUE	-11.5692
TestSuite	-11.5692
Logic	-11.5695
getBean	-11.5697
FilePath	-11.5702
ADD	-11.5711
GC	-11.5713
Install	-11.5716
xtext	-11.5716
caller	-11.5721
major	-11.5726
Live	-11.5727
detach	-11.5728
war	-11.5729
jdt	-11.5731
BatchNorm	-11.5733
下	-11.5741
mini	-11.5742
sz	-11.5743
collector	-11.5744
dep	-11.5746
legacy	-11.5749
mag	-11.5752
gym	-11.5755
Unable	-11.5756
interceptor	-11.5759
处理	-11.5764
EC	-11.5764
probs	-11.5767
FREQ	-11.5769
endswith	-11.5769
rng	-11.5773
offer	-11.5779
Share	-11.5783
LOCAL	-11.5784
mapped	-11.5785
Wait	-11.5786
lb	-11.5786
quick	-11.5789
cx	-11.579
Go	-11.579
checkNotNull	-11.579
aux	-11.5793
需要	-11.5797
Subscriber	-11.5797
Surface	-11.58
Scenario	-11.5801
Jar	-11.5802
States	-11.5802
Mac	-11.5808
Labels	-11.5811
Extra	-11.5815
ia	-11.5815
pa	-11.582
testGet	-11.582
middle	-11.5821
heap	-11.5825
ry	-11.5828
Health	-11.5829
Lazy	-11.5833
alignment	-11.5834
svg	-11.5839
ARRAY	-11.5842
人	-11.5846
qa	-11.5851
lc	-11.5853
underlying	-11.5853
WS	-11.5856
includes	-11.586
hs	-11.5867
Reply	-11.5874
assignment	-11.5876
expressions	-11.5877
sResponse	-11.5879
So	-11.5884
LinkedHashMap	-11.5884
Supported	-11.5884
DS	-11.5885
Invocation	-11.589
COM	-11.5891
watch	-11.5898
These	-11.5908
xFF	-11.5909
principal	-11.5909
RuntimeError	-11.591
strong	-11.5918
Numeric	-11.5921
('-	-11.5922
Clock	-11.5929
Phone	-11.5939
Each	-11.5948
Technologies	-11.595
hard	-11.595
City	-11.5952
bboxes	-11.5954
submission	-11.5955
创建	-11.5958
NEW	-11.5959
perm	-11.5961
ity	-11.5965
单	-11.5967
setEnabled	-11.5969
Robot	-11.597
around	-11.5973
ner	-11.5976
duplicate	-11.598
Instances	-11.5982
diagram	-11.5984
HttpClient	-11.5985
ord	-11.5986
assigned	-11.5988
Cipher	-11.5991
review	-11.5992
urn	-11.5994
Conversion	-11.5996
如果	-11.5996
warmup	-11.5996
servers	-11.5998
naming	-11.6
cookies	-11.6001
populate	-11.6004
Alpha	-11.6011
ONLY	-11.6015
Completion	-11.6016
ks	-11.6027
AL	-11.6027
cond	-11.6028
Relationship	-11.603
Azure	-11.6031
Fail	-11.6034
Peer	-11.6037
gray	-11.6039
sg	-11.6041
bio	-11.6041
fails	-11.6047
feats	-11.6048
DOM	-11.6052
gate	-11.6062
sms	-11.6063
README	-11.6064
Complex	-11.6073
sendMessage	-11.6075
ServletException	-11.6075
listdir	-11.6075
Entities	-11.6076
squeeze	-11.6078
multiply	-11.6083
exog	-11.6087
SECONDS	-11.6088
runners	-11.6091
did	-11.6091
metas	-11.6097
}\	-11.6097
ness	-11.6098
Contributor	-11.61
Currency	-11.6113
PARAMETER	-11.6121
topology	-11.6124
Replace	-11.6125
Idx	-11.6126
built	-11.6131
hosts	-11.6133
é	-11.6133
against	-11.6134
bytecode	-11.614
markdown	-11.614
会	-11.6142
cipher	-11.6148
nms	-11.6151
Safe	-11.6153
algorithms	-11.6156
discriminator	-11.6157
functools	-11.6157
Then	-11.6159
activate	-11.616
CPU	-11.6161
sequences	-11.6163
Like	-11.6163
ACCESS	-11.6171
cart	-11.6173
shapes	-11.6175
logo	-11.618
merged	-11.6189
ports	-11.619
ri	-11.619
macro	-11.6195
Disk	-11.6195
Gson	-11.6202
行	-11.6202
vehicle	-11.6202
addresses	-11.6203
个	-11.6204
idea	-11.6211
processors	-11.6219
时间	-11.622
可以	-11.6221
ticket	-11.6224
wicket	-11.6226
ATTRIBUTE	-11.6226
greater	-11.6227
zz	-11.6229
Review	-11.6231
getContent	-11.6241
appcompat	-11.6244
AtomicInteger	-11.6245
ApplicationContext	-11.6249
Over	-11.625
器	-11.6257
inverse	-11.626
=%	-11.6265
Git	-11.627
dispose	-11.6271
Aggregate	-11.6271
vectors	-11.6271
policies	-11.6273
UnmarshallerContext	-11.6273
请求	-11.6277
compatible	-11.6286
reactive	-11.6287
KeyError	-11.6291
UserId	-11.6292
dataframe	-11.6295
XX	-11.6297
signed	-11.63
jvm	-11.63
emptyList	-11.6303
Annotations	-11.6304
kl	-11.6304
pod	-11.6304
getState	-11.6305
SESSION	-11.6306
takes	-11.6314
у	-11.6317
yahoo	-11.6324
partner	-11.6327
scroll	-11.6345
RESULT	-11.6345
opensource	-11.6346
Now	-11.6352
transformation	-11.6353
invoice	-11.6354
toolkit	-11.6356
bitmap	-11.6357
ViewModel	-11.6361
matched	-11.6361
PATTERN	-11.6364
Tester	-11.6369
Added	-11.6372
Year	-11.6373
('%	-11.6376
Enumeration	-11.6385
AttributeSet	-11.6385
Bits	-11.6386
Skip	-11.6388
resolved	-11.6391
Hint	-11.6392
度	-11.6392
Self	-11.6397
BeforeEach	-11.64
ORDER	-11.6405
Fill	-11.6407
getPlayer	-11.6416
Preview	-11.6417
launcher	-11.6419
setType	-11.6419
Alembic	-11.642
truth	-11.6422
rg	-11.6424
getTarget	-11.6431
development	-11.6435
getMethod	-11.6436
"][	-11.6436
Invoke	-11.6436
mContext	-11.6437
Origin	-11.6438
ln	-11.6438
replaced	-11.644
bindings	-11.6441
corpus	-11.6445
findAll	-11.6446
traceback	-11.6448
Dispatcher	-11.6452
decision	-11.6457
doing	-11.6465
Received	-11.6465
]",	-11.6471
Trans	-11.6474
OPEN	-11.6474
employee	-11.6476
amp	-11.6476
hours	-11.648
avoid	-11.648
hazelcast	-11.6481
状态	-11.6481
volatile	-11.6482
compiled	-11.6487
Broker	-11.6489
bulk	-11.6489
Trade	-11.649
Visible	-11.6492
Bound	-11.6493
av	-11.6494
")),	-11.6496
Vehicle	-11.6496
Disabled	-11.6497
graphql	-11.6497
tau	-11.6498
Temp	-11.65
ordering	-11.6504
ReLU	-11.6506
newValue	-11.6509
according	-11.651
Rotation	-11.6518
RequestParam	-11.652
talend	-11.652
addition	-11.6526
__.__	-11.6528
AssertionError	-11.6532
Kernel	-11.6533
Define	-11.6536
Compare	-11.6536
getObject	-11.6537
ByteArray	-11.6538
Training	-11.654
MP	-11.6541
frag	-11.6541
Comparable	-11.6547
getConfig	-11.6549
seen	-11.655
Extract	-11.656
Energy	-11.6561
号	-11.6562
processes	-11.6564
Try	-11.6566
Exists	-11.6566
Transformation	-11.6566
opcode	-11.6567
ValidationError	-11.6568
sock	-11.657
ldap	-11.6575
ring	-11.658
slots	-11.6581
boundary	-11.6585
SECRET	-11.6588
Rows	-11.6601
pyaf	-11.6603
dispatcher	-11.6605
located	-11.6607
setdefault	-11.6609
ground	-11.6611
chunks	-11.6613
rating	-11.6614
Represents	-11.6618
topics	-11.6622
onnx	-11.6624
:])	-11.6625
allclose	-11.6628
paper	-11.6633
VIEW	-11.6635
pageSize	-11.6641
operators	-11.6645
Notice	-11.665
sequenceiq	-11.6651
guid	-11.6653
dag	-11.6658
cmp	-11.6659
tax	-11.6659
orders	-11.6663
clause	-11.6663
strict	-11.6674
QtCore	-11.6674
iterable	-11.6675
routing	-11.6675
tsds	-11.6682
ozone	-11.6684
pipe	-11.6685
mgr	-11.6688
uv	-11.6691
contentType	-11.6697
?>	-11.6698
TestBase	-11.6701
ENTITY	-11.6702
spawn	-11.6705
Candidate	-11.671
groupId	-11.6714
Border	-11.6715
CLI	-11.6715
操作	-11.6715
toggle	-11.6716
recipient	-11.6718
streaming	-11.672
endorse	-11.6721
日	-11.6729
SimpleDateFormat	-11.673
broadcast	-11.673
etc	-11.6738
regression	-11.6746
Pr	-11.6746
ckpt	-11.6748
cov	-11.675
ApiException	-11.6752
tester	-11.6754
SYSTEM	-11.6757
ctypes	-11.676
past	-11.6762
getColor	-11.6771
当前	-11.6772
aspect	-11.6774
linux	-11.6775
ld	-11.6779
agents	-11.6784
Declaration	-11.6784
reporting	-11.679
fold	-11.679
'',	-11.6791
Sampler	-11.6795
Vm	-11.6797
Facade	-11.6797
signals	-11.6798
...")	-11.68
Img	-11.6808
nf	-11.681
FileOutputStream	-11.6815
ownerId	-11.6821
getFile	-11.6822
inplace	-11.6825
PC	-11.6829
ABC	-11.6829
ActionEvent	-11.683
density	-11.6833
Constructs	-11.6841
ify	-11.6846
inline	-11.6853
setAttribute	-11.6855
fallback	-11.6859
Kit	-11.686
snippet	-11.6861
statements	-11.6862
Shift	-11.6863
Images	-11.6867
Atom	-11.6869
methodName	-11.6869
mix	-11.6871
SCHEMA	-11.6874
orientation	-11.6877
LEVEL	-11.6877
Department	-11.6879
reduction	-11.6879
algo	-11.688
QUERY	-11.6887
combined	-11.6888
RPC	-11.6892
hooks	-11.6895
("<	-11.6896
WIDTH	-11.69
getField	-11.6902
Community	-11.6906
DateTimeField	-11.6906
tracking	-11.6909
点	-11.6909
jo	-11.691
Tick	-11.6911
observer	-11.6912
ejb	-11.6912
PIL	-11.6925
Ticket	-11.6925
Sun	-11.6933
PathVariable	-11.6936
bins	-11.6946
IDs	-11.6948
discord	-11.6948
queryset	-11.695
Force	-11.6957
jp	-11.6957
Exit	-11.6958
ContentType	-11.696
locator	-11.6961
better	-11.6962
Special	-11.6963
Maps	-11.6971
successful	-11.6973
overwrite	-11.6976
Systems	-11.6977
Smart	-11.698
Translation	-11.6981
ofNullable	-11.6982
formula	-11.6982
fin	-11.6984
Managed	-11.6984
zoom	-11.6986
games	-11.6988
DC	-11.6989
Slice	-11.6997
dark	-11.6998
attempt	-11.6999
isPresent	-11.7001
XMLSchema	-11.7001
qt	-11.7002
probability	-11.7004
SUB	-11.7008
getConnection	-11.7013
Must	-11.7019
Particle	-11.7029
Angle	-11.703
Association	-11.7038
gi	-11.7041
stringBuilder	-11.7041
reports	-11.7043
")).	-11.7044
notifications	-11.7046
momentum	-11.7047
vendor	-11.7049
react	-11.7052
Unsupported	-11.7053
Pi	-11.7054
hist	-11.7054
该	-11.7054
Allowed	-11.7056
'})	-11.7057
getBlock	-11.7057
ordinal	-11.7057
HttpMethod	-11.7063
inp	-11.7066
difference	-11.7066
Tenant	-11.7066
Examples	-11.7072
Jdbc	-11.7075
Balance	-11.7079
Discovery	-11.7079
excel	-11.7083
lengths	-11.7091
singletonList	-11.7091
Tokenizer	-11.7091
'}),	-11.7094
tempfile	-11.7098
Dist	-11.7099
PAGE	-11.7102
Forward	-11.7104
ros	-11.7104
LOCATION	-11.7111
dubbo	-11.7111
arrow	-11.7117
setData	-11.712
today	-11.7122
getter	-11.7123
ByName	-11.7124
Rpc	-11.7125
clusters	-11.7135
COMMAND	-11.7142
CSS	-11.7145
hw	-11.7146
More	-11.7147
ling	-11.7148
TASK	-11.7149
yml	-11.7151
cpp	-11.7152
druid	-11.7152
kie	-11.7154
の	-11.7154
aa	-11.7155
sd	-11.7156
sid	-11.7164
AGPL	-11.7165
sky	-11.7166
filePath	-11.7169
Cat	-11.7171
qu	-11.7177
camunda	-11.7178
occurs	-11.7181
pick	-11.7182
Launcher	-11.7183
pygame	-11.7183
batches	-11.7185
shard	-11.7186
DOMAIN	-11.719
Don	-11.7194
regions	-11.7203
errorCode	-11.7205
predicted	-11.7206
Hibernate	-11.7206
Old	-11.7211
MOD	-11.7216
readInt	-11.7229
dash	-11.723
Scalar	-11.7231
Alignment	-11.7231
LayoutInflater	-11.7232
purpose	-11.7232
Exec	-11.7239
displayName	-11.724
indicator	-11.7244
human	-11.7247
${	-11.7252
WebSocket	-11.7255
Fix	-11.7258
getResult	-11.7259
candidates	-11.726
digit	-11.7265
mit	-11.7269
mq	-11.7276
Bus	-11.7277
getSize	-11.7277
rad	-11.7279
ansible	-11.728
song	-11.7281
AF	-11.7286
JLabel	-11.7287
wizard	-11.729
Lifecycle	-11.7298
concatenate	-11.7299
Solver	-11.7303
crm	-11.7304
'\''	-11.7304
explicit	-11.7307
foundation	-11.7311
pic	-11.7316
Printer	-11.7316
independent	-11.7318
focus	-11.7318
sv	-11.7322
CL	-11.7324
degree	-11.7326
Injection	-11.7327
az	-11.7327
confirm	-11.733
Ops	-11.7331
globals	-11.7334
异常	-11.7334
realm	-11.7336
++){	-11.7338
workbench	-11.7339
===========================================================	-11.7339
telegram	-11.7339
zh	-11.7339
analyzer	-11.7343
ByteArrayInputStream	-11.7344
pdb	-11.7347
successfully	-11.7348
fact	-11.7348
ConcurrentHashMap	-11.736
station	-11.736
JsonNode	-11.7363
hop	-11.7365
specifies	-11.7368
TypeEnum	-11.7371
getAbsolutePath	-11.7372
sol	-11.7374
CASCADE	-11.7375
gp	-11.7382
setTitle	-11.7384
EN	-11.7387
des	-11.739
BR	-11.7391
Excel	-11.7397
Modified	-11.7402
atoms	-11.7404
이	-11.7407
Alarm	-11.7411
VALUES	-11.7418
ask	-11.7419
}')	-11.7422
Coordinate	-11.7422
ImmutableMap	-11.7424
PolyForm	-11.7432
jcn	-11.7433
Movie	-11.7433
Reg	-11.7434
в	-11.7435
'')	-11.7444
PsiElement	-11.7445
Contents	-11.7448
evt	-11.7451
Opt	-11.7452
rr	-11.7455
IC	-11.7464
ary	-11.7465
ck	-11.7467
getLast	-11.7469
Representation	-11.7473
exact	-11.7476
Classification	-11.7476
modifier	-11.7482
replay	-11.7482
RequiredArgsConstructor	-11.7485
Capacity	-11.7485
mongo	-11.7487
chapter	-11.7494
Cached	-11.7501
instrument	-11.7501
TARGET	-11.7501
comparison	-11.7503
Updated	-11.7503
CH	-11.7503
ClassNotFoundException	-11.7503
asn	-11.7504
inherit	-11.7508
>{@	-11.7508
regular	-11.7509
pth	-11.7511
Aspect	-11.7513
give	-11.7515
evaluator	-11.7516
embedded	-11.7522
OrderedDict	-11.7523
mappings	-11.7528
Po	-11.7529
ny	-11.7532
BufferedImage	-11.7535
Ok	-11.7535
ment	-11.7537
mozilla	-11.7537
Bool	-11.7537
rnn	-11.7542
Aggregation	-11.7543
tu	-11.7548
Visibility	-11.755
ao	-11.7554
ation	-11.7558
interpreter	-11.7559
Mat	-11.7559
消息	-11.7562
Circle	-11.7565
Fluid	-11.7569
RS	-11.7577
Capture	-11.7583
ag	-11.7585
tensors	-11.7586
lu	-11.7592
Pane	-11.7593
Neither	-11.7595
unpack	-11.7596
compatibility	-11.7597
Pixel	-11.7598
TableName	-11.7602
hold	-11.7608
IE	-11.7612
进行	-11.7612
buttons	-11.7613
mob	-11.7615
quit	-11.7617
markup	-11.762
DOWN	-11.7622
identifiers	-11.7623
hint	-11.7624
preprocess	-11.7625
$$	-11.7635
Pipe	-11.7635
Parallel	-11.7635
Hand	-11.7636
Mo	-11.7636
JDBC	-11.7639
Allow	-11.764
tmpdir	-11.764
ADDRESS	-11.7642
}'.	-11.7646
с	-11.7654
touch	-11.7654
sam	-11.7656
together	-11.7656
fluid	-11.7656
routes	-11.7659
particle	-11.7666
HEAD	-11.7668
Serial	-11.7669
Dump	-11.7669
datenwerke	-11.7672
getBoolean	-11.7674
water	-11.7675
incoming	-11.7676
hc	-11.7681
controls	-11.7688
GPU	-11.7689
Arr	-11.7689
ak	-11.769
masked	-11.7692
ram	-11.7693
damage	-11.7696
strftime	-11.7697
Redirect	-11.7705
Country	-11.7706
compression	-11.7709
delimiter	-11.7713
gap	-11.7722
pkl	-11.7724
caption	-11.7728
rendering	-11.7736
jit	-11.7741
social	-11.7742
meter	-11.7744
cont	-11.7754
Since	-11.7755
Org	-11.7756
deepcopy	-11.7756
BeforeClass	-11.776
tex	-11.7763
protocols	-11.7767
Specific	-11.7767
年	-11.7768
sq	-11.7768
Activation	-11.7768
visual	-11.7768
band	-11.7772
Scheme	-11.7775
supplier	-11.778
Research	-11.7785
infrastructure	-11.7788
Reporter	-11.7788
}/{	-11.7792
patient	-11.7793
getModel	-11.7794
Qualifier	-11.7795
TR	-11.7798
pan	-11.7799
Mem	-11.78
appropriate	-11.7801
mirror	-11.7801
NotFound	-11.7802
Finished	-11.7802
JCOReflector	-11.7806
goodG	-11.7812
prog	-11.7813
calcite	-11.7818
Eval	-11.7818
agg	-11.7819
Wallet	-11.7819
BooleanField	-11.7826
ZERO	-11.7827
toIndentedString	-11.7832
WRITE	-11.7832
Sheet	-11.7832
SHORT	-11.7836
AA	-11.7838
getEntity	-11.7838
orElse	-11.7839
Bootstrap	-11.7839
Money	-11.7839
vi	-11.784
Facebook	-11.7844
Alfresco	-11.7845
defaultdict	-11.7848
ExecutionException	-11.7849
rhs	-11.7851
Bank	-11.7852
Interaction	-11.7855
AC	-11.7857
Skill	-11.7858
endsWith	-11.7861
applications	-11.7866
Addr	-11.7867
El	-11.7868
IR	-11.7869
PO	-11.7875
hyper	-11.7881
LABEL	-11.7881
skill	-11.7883
networks	-11.7886
Digest	-11.7888
Dev	-11.7888
Mobile	-11.7889
aug	-11.7891
tap	-11.7892
#%	-11.79
ut	-11.7903
Deep	-11.7904
PACKAGE	-11.7912
gameserver	-11.7917
CENTER	-11.7917
slack	-11.7926
Wizard	-11.7932
produce	-11.7944
visibility	-11.7944
EntityPlayer	-11.7944
任务	-11.7945
Polygon	-11.7945
结果	-11.7946
kv	-11.7947
linalg	-11.7949
vertical	-11.7952
getChildren	-11.7952
Cert	-11.7956
fw	-11.7963
fixtures	-11.7964
Evaluation	-11.7973
people	-11.7983
Overlay	-11.7988
lf	-11.7989
land	-11.7992
yyyy	-11.7997
JAXB	-11.8003
perf	-11.8005
measurement	-11.8006
CS	-11.8009
]+	-11.8009
jms	-11.801
FILTER	-11.801
fo	-11.8013
npc	-11.8019
setColor	-11.8019
parsers	-11.8019
relationship	-11.802
den	-11.8023
调用	-11.8027
CP	-11.8027
HH	-11.8028
mgmt	-11.8028
who	-11.8036
peek	-11.8037
sentences	-11.8037
INTEGER	-11.8037
itertools	-11.8042
won	-11.8053
bpm	-11.8054
dataclass	-11.8054
Mongo	-11.806
ion	-11.8066
getService	-11.8066
II	-11.8066
chen	-11.8067
Models	-11.8068
similarity	-11.8068
-----	-11.807
Tracking	-11.8074
成功	-11.8078
hat	-11.8086
TYPES	-11.8088
transactions	-11.8088
Frequency	-11.809
Js	-11.8091
OWNER	-11.8091
码	-11.8091
sphere	-11.8093
implementations	-11.8094
imp	-11.8098
netflix	-11.8103
Ms	-11.8106
osp	-11.8107
入	-11.8107
getTitle	-11.8116
[...,	-11.8117
}".	-11.8119
restart	-11.8119
Modules	-11.8123
replaceAll	-11.8124
writeInt	-11.8129
CN	-11.813
persist	-11.8133
Rank	-11.8133
服务	-11.8135
zstack	-11.8136
gold	-11.8139
Crypto	-11.8143
decoded	-11.8144
scatter	-11.8145
envs	-11.8147
Biome	-11.8147
//###########################	-11.815
iot	-11.8156
bm	-11.8156
annotated	-11.8157
craft	-11.8163
navigation	-11.8169
Yaml	-11.8174
Colors	-11.8177
Ratio	-11.8185
CrudRepository	-11.8185
Scroll	-11.8186
follow	-11.8186
drive	-11.8188
Curve	-11.819
wd	-11.8197
correctly	-11.82
RESPONSE	-11.8202
isNull	-11.8203
listen	-11.8212
Radius	-11.8219
money	-11.8219
errorMessage	-11.8223
Generation	-11.823
__))	-11.823
Formula	-11.8231
LIMIT	-11.8239
CONTEXT	-11.824
factories	-11.8241
Simulation	-11.8242
gms	-11.8244
ExecutorService	-11.8245
Comp	-11.8248
PT	-11.8252
getSession	-11.8255
Photo	-11.8257
失败	-11.8258
hidl	-11.8261
FOUND	-11.8263
libraries	-11.8264
alarm	-11.8264
NET	-11.8266
META	-11.8272
月	-11.8273
aliases	-11.8273
currentThread	-11.8273
gemp	-11.8274
physical	-11.8282
Visual	-11.8283
TOP	-11.8285
Bulk	-11.8287
kill	-11.8287
Trainer	-11.8288
pitch	-11.8288
complexType	-11.8293
ChangeListener	-11.8293
challenge	-11.8293
Observation	-11.8297
Pending	-11.8298
Constraints	-11.8304
tooltip	-11.831
production	-11.831
Loc	-11.8314
ukku	-11.8316
micronaut	-11.8318
Resp	-11.8321
whose	-11.8322
LE	-11.8326
CI	-11.8326
Syntax	-11.8329
consume	-11.833
hass	-11.8334
LR	-11.8336
Resolution	-11.8337
Guid	-11.8342
NA	-11.8343
pf	-11.8347
delivery	-11.8347
'./	-11.8351
interaction	-11.8352
Primary	-11.8353
UserInfo	-11.8357
Win	-11.8358
getLocation	-11.8358
adapters	-11.836
Plus	-11.8364
iris	-11.8364
ResNet	-11.8365
translator	-11.8366
recv	-11.8367
encryption	-11.8368
tls	-11.837
extras	-11.8372
DisplayName	-11.8372
separate	-11.8374
Projection	-11.8379
mk	-11.838
acl	-11.8386
setLevel	-11.839
rn	-11.8392
sigmoid	-11.8401
vt	-11.8402
']),	-11.8403
Big	-11.8404
avatar	-11.8406
fraction	-11.8411
javacpp	-11.8412
actually	-11.842
secure	-11.842
Stmt	-11.8425
scrapy	-11.8425
filenames	-11.8426
Exporter	-11.8434
aop	-11.8436
LINK	-11.8437
recursive	-11.8437
Writable	-11.8437
PublicKey	-11.8438
Executable	-11.8443
根据	-11.8449
postfix	-11.845
ht	-11.845
EObject	-11.845
odd	-11.8458
Attack	-11.8458
iters	-11.8461
uml	-11.8463
checking	-11.8463
Ctx	-11.8464
seek	-11.8467
Technology	-11.8467
<?,	-11.8469
baseline	-11.847
Temple	-11.8472
uc	-11.8476
motion	-11.8477
risk	-11.8477
SubType	-11.848
EnumSet	-11.8485
Bo	-11.8485
players	-11.8485
ABLE	-11.8489
Retrieve	-11.8495
openjdk	-11.8497
inds	-11.8501
grammar	-11.8501
untracked	-11.8502
Bukkit	-11.8502
ig	-11.8503
profiles	-11.8504
IM	-11.8505
High	-11.8505
openstack	-11.8512
DD	-11.8516
daemon	-11.8516
Your	-11.8519
onClick	-11.852
MySQL	-11.852
isEnabled	-11.8521
replacement	-11.8525
CM	-11.8526
XmlRootElement	-11.8526
可	-11.8527
UTC	-11.8528
Dense	-11.8533
Optimizer	-11.8534
dv	-11.8537
Music	-11.8538
incorrect	-11.854
Updater	-11.8541
guild	-11.8544
Deploy	-11.8544
Delivery	-11.8545
Inline	-11.8547
scaling	-11.8548
ELEMENT	-11.8549
reactivex	-11.855
Logical	-11.8559
vision	-11.856
DEVICE	-11.8565
JUnit	-11.8565
maybe	-11.8568
ERR	-11.8568
commercial	-11.8568
specs	-11.8569
Persistent	-11.8569
SpringRunner	-11.857
vid	-11.8571
ADMIN	-11.8573
xd	-11.8574
Online	-11.8576
torchvision	-11.858
ter	-11.8582
Matching	-11.8583
defines	-11.8583
jd	-11.8583
compress	-11.8584
KeyValue	-11.8585
mandatory	-11.859
getResources	-11.8591
lv	-11.8591
combine	-11.8593
Quantity	-11.8593
Done	-11.8594
Serialization	-11.8595
Terminal	-11.8595
NT	-11.8597
请	-11.8598
frontend	-11.8598
Linux	-11.86
gather	-11.86
EMAIL	-11.8601
PreparedStatement	-11.8604
BC	-11.8609
exactly	-11.8615
domains	-11.8618
percentage	-11.8619
Trial	-11.8621
adv	-11.8621
population	-11.8625
']))	-11.8625
Extensions	-11.863
roll	-11.8635
Units	-11.8639
ENABLED	-11.864
Adam	-11.8644
Duplicate	-11.8644
InetAddress	-11.8646
INSERT	-11.8651
Pet	-11.8653
starts	-11.8653
grant	-11.8663
resulting	-11.8663
AES	-11.8667
IntegerField	-11.8672
packageName	-11.8673
CHECK	-11.8679
Maximum	-11.8679
и	-11.8679
assertThrows	-11.868
opensearch	-11.8684
buy	-11.8685
PUBLIC	-11.8685
ten	-11.8688
mel	-11.8688
ctrl	-11.8689
Dot	-11.8693
CommandLine	-11.8695
CO	-11.8695
wf	-11.8696
glassfish	-11.8696
dialect	-11.8703
guess	-11.8703
Equal	-11.8704
Invoice	-11.8712
anything	-11.8714
parents	-11.8715
ROLE	-11.8716
ovirt	-11.8717
pet	-11.872
detected	-11.8722
FileUtils	-11.8723
shadow	-11.8724
要	-11.8727
Flask	-11.8728
availability	-11.873
comparator	-11.873
XmlAttribute	-11.8732
classifiers	-11.8732
Indexed	-11.8733
Cart	-11.8734
subclass	-11.8736
aggregation	-11.8736
monitoring	-11.8737
dw	-11.8742
yy	-11.8743
Publish	-11.8743
outside	-11.8753
jdcloud	-11.8754
projectId	-11.8754
STR	-11.8755
RequestMethod	-11.8756
Legacy	-11.8757
TITLE	-11.8758
Username	-11.8759
Wrong	-11.8759
stdin	-11.8763
ResponseBody	-11.8763
supplied	-11.8765
making	-11.8774
Compat	-11.8775
Tokens	-11.8776
cg	-11.8778
SM	-11.878
buff	-11.8791
Started	-11.8794
UserService	-11.8795
chi	-11.8795
("[	-11.8795
transient	-11.8798
occurred	-11.8799
tuples	-11.8802
fastjson	-11.8804
weather	-11.8807
ListView	-11.8809
intended	-11.881
Fixture	-11.881
invoked	-11.881
iam	-11.8811
Collect	-11.8815
horizontal	-11.8815
May	-11.8817
gan	-11.882
spider	-11.8821
startup	-11.8823
Di	-11.8828
GENERATED	-11.8829
修改	-11.8833
nav	-11.8833
upon	-11.8839
migrate	-11.8845
PR	-11.8845
"&	-11.8846
xb	-11.8846
statusCode	-11.8847
overlay	-11.8848
DataProvider	-11.8855
bold	-11.8856
Adds	-11.8858
manually	-11.886
far	-11.8866
Bi	-11.8866
vel	-11.8866
setVisible	-11.8868
alg	-11.8868
getCount	-11.8869
que	-11.887
Figure	-11.8873
say	-11.8873
getFirst	-11.8873
此	-11.8878
Partial	-11.8885
Fault	-11.8894
NORMAL	-11.8895
elapsed	-11.8898
directories	-11.89
TLS	-11.8903
前	-11.8904
XmlEnumValue	-11.8905
FALSE	-11.8907
FunctionalInterface	-11.8908
paddle	-11.8911
================================================================	-11.8911
Detection	-11.8912
NAMESPACE	-11.8914
Bottom	-11.8923
定	-11.8924
Shop	-11.8924
icons	-11.8933
yu	-11.8935
sessions	-11.8937
infer	-11.8938
Encryption	-11.8942
pure	-11.8946
gain	-11.8946
DAY	-11.8948
ttl	-11.8954
soup	-11.8958
Whole	-11.896
flash	-11.8961
fully	-11.8963
Assign	-11.8965
AttributeError	-11.897
hardware	-11.8971
CV	-11.8976
imshow	-11.8977
corr	-11.898
从	-11.898
optimize	-11.8981
Licence	-11.8982
waiting	-11.8984
esper	-11.8986
mon	-11.8987
developer	-11.8988
OFFSET	-11.8988
stores	-11.8994
Requests	-11.8996
Requirement	-11.9001
transformers	-11.9004
Injector	-11.9005
QtGui	-11.9006
则	-11.9007
capabilities	-11.9009
Links	-11.9014
runnable	-11.9014
Coverage	-11.9018
tw	-11.9019
Cross	-11.9034
fft	-11.9034
splits	-11.9035
circuit	-11.9036
recall	-11.9042
simulator	-11.9045
overlap	-11.9046
OFF	-11.9046
EXT	-11.9046
Experiment	-11.9047
CT	-11.905
BAD	-11.9051
RequestBuilder	-11.9059
closing	-11.9059
alter	-11.906
Logs	-11.9069
gpl	-11.9072
"\"	-11.9074
TimeZone	-11.9091
Mouse	-11.9097
++]	-11.9101
su	-11.911
functionality	-11.911
histogram	-11.9112
AR	-11.9115
offsets	-11.9116
pause	-11.9116
subtype	-11.9118
Com	-11.912
Topology	-11.9125
polygon	-11.9126
latitude	-11.913
Quality	-11.9135
week	-11.9139
setDefault	-11.9141
ler	-11.9141
kt	-11.9143
测试	-11.9144
ENV	-11.9144
TestUtil	-11.9144
Flux	-11.9147
Zip	-11.9147
Begin	-11.9151
Hit	-11.9154
Focus	-11.916
Visit	-11.9161
zk	-11.9163
verification	-11.9168
feedback	-11.9172
Suffix	-11.9174
Procedure	-11.9177
sections	-11.9179
Con	-11.9184
DF	-11.9187
gdx	-11.9188
小	-11.9188
mn	-11.9194
UID	-11.9194
tabs	-11.9196
toByteArray	-11.9197
Dashboard	-11.9199
xa	-11.9199
infra	-11.9205
setInfo	-11.9207
getNext	-11.9209
stuff	-11.9211
packets	-11.9214
readlines	-11.9214
ByteString	-11.9215
BB	-11.9217
objc	-11.9217
["+	-11.922
Will	-11.922
Design	-11.9221
PK	-11.9223
Mgr	-11.9226
intersection	-11.9227
spin	-11.9231
Secondary	-11.9232
lbl	-11.9233
dilation	-11.9235
Facet	-11.9236
pv	-11.9236
bag	-11.9242
developers	-11.9243
tested	-11.9243
getClient	-11.9245
specifying	-11.9246
kr	-11.9247
decrypt	-11.9249
integers	-11.925
Unicode	-11.9252
npy	-11.9253
Assertion	-11.9254
Corp	-11.9254
National	-11.9256
ticks	-11.926
Ptr	-11.9261
ib	-11.9267
languages	-11.927
ipv	-11.9271
encrypted	-11.9273
represent	-11.9276
Removed	-11.9277
TCP	-11.928
'/'	-11.9284
Quick	-11.9284
Realm	-11.9284
ME	-11.9285
FIXME	-11.9286
getNode	-11.9286
FileNotFoundException	-11.9288
rho	-11.929
ik	-11.9294
Pojo	-11.9295
Im	-11.9295
divide	-11.9296
Heap	-11.9297
rectangle	-11.9298
Jackson	-11.9301
Roles	-11.9301
Hive	-11.9304
emit	-11.931
Damage	-11.9312
anim	-11.9314
setStatus	-11.9319
Anchor	-11.932
accountId	-11.933
mount	-11.9332
redhat	-11.9344
hrms	-11.9347
thr	-11.9351
estimator	-11.9353
Disable	-11.9354
References	-11.9358
TRAIN	-11.9364
endTime	-11.9371
twitter	-11.9374
Same	-11.9375
ReadOnly	-11.9377
Loaded	-11.9377
things	-11.9382
emulator	-11.9383
minor	-11.9385
RT	-11.9389
hd	-11.9392
logout	-11.9394
Lab	-11.9394
prices	-11.9398
dog	-11.9399
declaration	-11.94
jena	-11.9403
Goal	-11.9404
EE	-11.9408
temporal	-11.9408
Maven	-11.9412
Unexpected	-11.9413
baz	-11.9418
Outcome	-11.9419
Cms	-11.9421
containers	-11.9429
graalvm	-11.9436
mvc	-11.9437
scaled	-11.9438
requestOptions	-11.9444
SO	-11.9445
MASK	-11.9448
mocker	-11.945
optimization	-11.9458
Calculate	-11.9464
Measure	-11.9467
!"	-11.9468
accepted	-11.9468
longitude	-11.947
合	-11.9473
secondary	-11.9475
Produces	-11.9475
confidence	-11.9476
OpenNMS	-11.9478
pertech	-11.9481
Average	-11.9481
GeneratedValue	-11.9482
setMessage	-11.9487
anchors	-11.9487
Secure	-11.9491
temporary	-11.9494
Ordered	-11.9497
tip	-11.9497
randn	-11.9499
ACCOUNT	-11.9503
applicationContext	-11.9503
arn	-11.9504
Matches	-11.9505
persistent	-11.9505
getRoot	-11.9506
credit	-11.9506
msgs	-11.9506
Pro	-11.9508
Indices	-11.9509
HEIGHT	-11.9511
speech	-11.9516
toolbar	-11.9516
MagicMock	-11.9517
communication	-11.9518
ı	-11.9518
oid	-11.9524
gd	-11.9524
Hub	-11.9527
swccgo	-11.9527
sprite	-11.9528
jsonObject	-11.9529
pretty	-11.953
normalization	-11.9546
FAIL	-11.9546
interpolation	-11.9554
mqtt	-11.9556
Verification	-11.9557
checksum	-11.9558
ThreadLocal	-11.956
insertion	-11.9563
PRE	-11.9565
waitFor	-11.9567
LogManager	-11.9571
addon	-11.9573
KeyEvent	-11.9576
默认	-11.9576
lite	-11.9581
AsString	-11.9582
propertyName	-11.9588
ConfigurationProperties	-11.9591
CHECKING	-11.9591
handles	-11.9591
residual	-11.9593
snap	-11.9595
ranges	-11.9596
CHANNEL	-11.9597
similar	-11.9599
Blue	-11.9602
Invoker	-11.9602
sip	-11.961
PRIVATE	-11.9611
转	-11.9617
getIndex	-11.9617
wang	-11.9618
Steps	-11.9618
MT	-11.9625
\",\"	-11.9629
disconnect	-11.963
地址	-11.963
getLog	-11.9633
BlockEntity	-11.9645
TM	-11.9647
hk	-11.9648
DATABASE	-11.9648
Thing	-11.9649
interactive	-11.965
getProject	-11.965
scheduling	-11.9654
"$	-11.9658
further	-11.9663
CE	-11.9666
latent	-11.9669
smooth	-11.9669
javascript	-11.9672
成	-11.9674
refer	-11.9675
mlp	-11.9675
Month	-11.9676
dates	-11.9676
ship	-11.968
comm	-11.9682
itself	-11.9686
Star	-11.9691
Desktop	-11.9694
多	-11.9699
Architecture	-11.9704
ServiceException	-11.9708
displayed	-11.9709
...");	-11.9717
getUrl	-11.9721
IllegalAccessException	-11.9725
kb	-11.9726
ceil	-11.9728
INTERNAL	-11.973
wire	-11.9731
indicates	-11.9731
Popup	-11.9732
Quota	-11.9734
poi	-11.9739
HttpHeaders	-11.974
Launch	-11.9743
wt	-11.9745
logged	-11.9746
Performance	-11.975
("${	-11.9753
forge	-11.9755
CheckBox	-11.9758
qual	-11.9767
Shard	-11.9774
MATCH	-11.9776
Navigation	-11.9776
pentaho	-11.9777
NV	-11.9784
Animal	-11.9786
neighbors	-11.9787
accessor	-11.9787
AP	-11.9787
due	-11.9789
下午	-11.9789
表示	-11.979
PostMapping	-11.9793
alfresco	-11.9793
='',	-11.9797
Sms	-11.9798
unmarshall	-11.9798
assertIn	-11.9798
Pdf	-11.9804
hierarchy	-11.9804
strides	-11.9806
ball	-11.9808
undo	-11.9812
getHeader	-11.9815
DNS	-11.9816
Magic	-11.9818
GPLv	-11.9819
isTrue	-11.9821
Ping	-11.9821
reflection	-11.9824
coll	-11.9828
Wrap	-11.9828
EP	-11.983
Streaming	-11.983
importlib	-11.9837
Csv	-11.9838
Mappings	-11.9839
claim	-11.9843
REQUIRED	-11.9843
peak	-11.9844
Skin	-11.985
Documentation	-11.985
stone	-11.9852
ho	-11.9858
recent	-11.9858
soap	-11.9859
jax	-11.986
Notes	-11.986
huawei	-11.9862
PA	-11.9863
modes	-11.9865
DA	-11.9865
leave	-11.9866
distinct	-11.987
位	-11.987
voice	-11.9871
Boot	-11.9872
various	-11.9872
Decision	-11.9875
被	-11.9876
getImage	-11.9878
FLOAT	-11.988
instanceId	-11.9885
diag	-11.9887
wish	-11.9891
VAR	-11.9895
PUT	-11.9896
worldIn	-11.9898
press	-11.9901
flex	-11.9902
Seconds	-11.9903
getClassLoader	-11.9904
pref	-11.9906
Completed	-11.9909
raised	-11.9909
BaseTest	-11.9909
ack	-11.9909
km	-11.9912
Elastic	-11.9915
Dependencies	-11.9915
transformed	-11.9916
Diagram	-11.9917
Small	-11.9917
jump	-11.992
Pages	-11.9921
printf	-11.9922
Ch	-11.9922
Family	-11.9922
Li	-11.9923
limits	-11.9925
Leaf	-11.9927
通过	-11.9932
ExceptionHandler	-11.9934
computed	-11.9936
)],	-11.9937
DN	-11.9939
来	-11.9942
subscriber	-11.9943
blocking	-11.9943
Learning	-11.9944
最	-11.995
ghidra	-11.9954
>");	-11.9956
EX	-11.9958
JBoss	-11.9959
Mean	-11.9959
组	-11.996
getBody	-11.9961
Sprite	-11.9964
trained	-11.9965
BATCH	-11.9966
analytics	-11.9966
Tax	-11.997
Chapter	-11.997
datatype	-11.997
However	-11.9971
JsonCreator	-11.9972
OnClickListener	-11.9973
POS	-11.9974
JOB	-11.9975
DOUBLE	-11.9978
keyboard	-11.998
tokenize	-11.9983
Resize	-11.9985
instantiate	-11.9987
CB	-11.9991
TG	-11.9992
refs	-11.9994
Words	-12
minute	-12.0001
getAddress	-12.0001
BYTES	-12.0003
LAST	-12.0004
Computer	-12.0006
NN	-12.0009
Submit	-12.0012
实例	-12.0015
Shader	-12.0018
Inputs	-12.0021
typ	-12.0031
tiles	-12.0033
Present	-12.0033
That	-12.0035
office	-12.0036
д	-12.0036
vault	-12.0037
ApiModel	-12.0038
vgg	-12.0038
dk	-12.0042
GitHub	-12.0045
dataType	-12.0048
reads	-12.0051
DJANGO	-12.0058
Configs	-12.0059
AlipayResponse	-12.0062
Cycle	-12.0064
prevent	-12.0068
createTime	-12.007
STREAM	-12.0071
baeldung	-12.0072
Low	-12.0078
Manual	-12.0087
ICON	-12.0088
hparams	-12.0095
输入	-12.0097
thumbnail	-12.0098
disp	-12.0102
--;	-12.0102
getcwd	-12.0107
getLabel	-12.0108
图	-12.011
Keyboard	-12.0113
Seasonal	-12.0114
Ensure	-12.0114
tok	-12.012
Typed	-12.012
overflow	-12.0121
asarray	-12.0123
添加	-12.0125
decorators	-12.0125
infos	-12.0126
hbase	-12.0127
anno	-12.0131
Act	-12.0132
Bug	-12.0142
getJCO	-12.0145
gh	-12.0145
SVG	-12.0148
getAction	-12.0149
ys	-12.0152
Docker	-12.0152
released	-12.0154
jc	-12.016
Concept	-12.0161
lg	-12.0164
输出	-12.0167
operand	-12.0168
outfile	-12.0169
openqa	-12.017
journal	-12.017
Listeners	-12.017
EXTRA	-12.0176
popup	-12.0179
Closed	-12.0183
labs	-12.0186
classLoader	-12.0188
Capabilities	-12.0189
capella	-12.0191
John	-12.0194
Normalize	-12.0195
codecs	-12.0198
图片	-12.02
scopes	-12.0202
lwjgl	-12.0203
BUFFER	-12.0206
Uid	-12.0207
ada	-12.0211
ize	-12.0211
Feedback	-12.0213
getTotal	-12.0214
ExecutionContext	-12.0215
ous	-12.0216
wall	-12.0217
RM	-12.0217
extracted	-12.0218
dal	-12.022
owl	-12.0227
HOME	-12.0227
Starting	-12.0227
Sec	-12.0228
computer	-12.0234
を	-12.0235
XY	-12.0236
planner	-12.0236
CHAR	-12.024
scheduled	-12.0243
Goods	-12.0244
ー	-12.0245
linspace	-12.0249
']]	-12.0249
Padding	-12.0251
gender	-12.0253
addWidget	-12.0255
Craft	-12.0261
Tables	-12.0261
Participant	-12.0263
creates	-12.0263
getZ	-12.0264
Compound	-12.0264
PL	-12.0265
badlogic	-12.0265
LayoutParams	-12.0272
prefs	-12.0272
TypeName	-12.0273
atlas	-12.0274
bw	-12.0281
Statistic	-12.0281
getLength	-12.0284
longer	-12.0284
multipart	-12.0285
CURRENT	-12.0286
getitem	-12.0289
CR	-12.029
字符串	-12.0291
sensitive	-12.0293
Descriptors	-12.0296
corner	-12.0297
DL	-12.0297
degrees	-12.0297
lim	-12.0297
staff	-12.0299
InstanceId	-12.0305
bill	-12.0305
Bag	-12.0305
crawler	-12.0306
PIPE	-12.0308
setVisibility	-12.0312
architecture	-12.0315
STATIC	-12.0316
concept	-12.032
assertion	-12.0321
vim	-12.0321
trial	-12.0321
TIMESTAMP	-12.0324
lstm	-12.0325
unexpected	-12.0325
重	-12.0325
量	-12.0329
intervals	-12.0329
capability	-12.033
Parameterized	-12.033
Authority	-12.0331
BYTE	-12.0333
AccessToken	-12.0334
palette	-12.0334
minus	-12.0338
Hierarchy	-12.0341
е	-12.0343
testcases	-12.0346
DT	-12.0349
本	-12.035
semantic	-12.0351
PS	-12.0353
GB	-12.0353
thresh	-12.0354
tg	-12.0361
getConfiguration	-12.0367
four	-12.0372
RUN	-12.0373
mocked	-12.0375
TC	-12.0377
getting	-12.0379
Middleware	-12.038
deg	-12.0382
reuse	-12.0382
FIRST	-12.0382
ET	-12.0383
clicked	-12.0384
really	-12.0384
getRequest	-12.0386
effective	-12.0387
GroupId	-12.0388
getProperties	-12.0388
overrides	-12.0388
preprocessing	-12.0393
Spark	-12.0396
Spawn	-12.0397
mojang	-12.0398
readable	-12.04
],[	-12.04
her	-12.0401
FOLDER	-12.0406
gif	-12.0407
wc	-12.0408
artist	-12.0408
并	-12.0408
regional	-12.0409
authenticate	-12.0409
Party	-12.0411
median	-12.0415
sTo	-12.0417
Illegal	-12.0419
Css	-12.0426
notNull	-12.0426
GlStateManager	-12.0428
infinispan	-12.0429
Conversation	-12.043
ImmutableSet	-12.0435
!",	-12.0436
Meter	-12.0436
pol	-12.0438
proposal	-12.0439
Infos	-12.044
Sdk	-12.0442
indicating	-12.0443
Portal	-12.0444
=============	-12.0445
GP	-12.0446
gf	-12.0447
LSTM	-12.0448
tiny	-12.0449
segmentation	-12.0451
GEN	-12.0452
Otherwise	-12.0453
liferay	-12.0455
Mass	-12.0457
cassandra	-12.0459
compressed	-12.046
unregister	-12.0466
vc	-12.0468
declare	-12.0477
setDescription	-12.0481
rich	-12.0487
metavar	-12.0492
tutorial	-12.0493
assume	-12.0493
handled	-12.0494
CardSetInfo	-12.0495
ActionListener	-12.0496
lam	-12.0498
!')	-12.0502
Relative	-12.0502
Times	-12.0502
Separator	-12.0505
CG	-12.0505
Professional	-12.0514
CMD	-12.0515
JsonIgnoreProperties	-12.0518
xsd	-12.0523
Many	-12.053
Bin	-12.0532
plug	-12.0537
生成	-12.0539
compound	-12.0544
Cap	-12.0555
REF	-12.0557
Tencent	-12.0558
Dog	-12.0558
Spi	-12.056
+"].	-12.0566
Dropout	-12.0567
:`~	-12.0568
PrintStream	-12.0569
CardImpl	-12.0569
IOUtils	-12.0572
Hi	-12.0574
forName	-12.0575
向	-12.0576
ACTIVE	-12.0577
RSA	-12.0579
getC	-12.0581
getLocal	-12.0582
clientId	-12.0585
vr	-12.0593
appear	-12.0593
equivalent	-12.0596
goods	-12.0598
javadoc	-12.06
setLayout	-12.0602
nextToken	-12.0602
taken	-12.0603
gaussian	-12.0606
intermediate	-12.0607
solr	-12.0607
daily	-12.0609
Slider	-12.0611
Criterion	-12.0612
发	-12.0614
crawl	-12.0615
Conn	-12.0616
Receive	-12.0617
方	-12.0618
apis	-12.0618
节点	-12.0622
GLOBAL	-12.0623
Us	-12.0625
Executors	-12.063
Toggle	-12.0632
tic	-12.0636
findById	-12.0636
Difference	-12.0638
objective	-12.0639
Os	-12.0641
=======================================================	-12.0641
Toolkit	-12.0641
UNIT	-12.0643
coffee	-12.0644
TextUtils	-12.0644
")))	-12.0646
repositories	-12.0646
Authenticator	-12.0652
Sp	-12.0652
FP	-12.0656
finder	-12.0657
controllers	-12.0661
locals	-12.0667
binder	-12.0671
Restore	-12.0676
artifacts	-12.0676
TreeMap	-12.0678
arraycopy	-12.0679
EntityManager	-12.0682
WSGI	-12.0683
NBT	-12.0683
Updates	-12.069
POINT	-12.0691
En	-12.0693
docstring	-12.0694
multiprocessing	-12.0694
Orientation	-12.0695
Configure	-12.0698
未	-12.0702
Cause	-12.0707
idxs	-12.0708
hm	-12.071
Measurement	-12.0711
pagination	-12.0711
webservices	-12.0712
SEARCH	-12.0714
SEPARATOR	-12.0714
Deleted	-12.0715
Audience	-12.0718
sax	-12.0719
TP	-12.0726
Arrow	-12.0728
PyQt	-12.0738
getElement	-12.0738
almost	-12.0741
Where	-12.0744
JButton	-12.0745
Uni	-12.0749
Rating	-12.0752
composed	-12.0752
datastore	-12.0755
opencv	-12.0756
distutils	-12.0757
resultSet	-12.0757
Physical	-12.0757
JD	-12.0759
analyze	-12.0759
BEGIN	-12.076
='"	-12.076
planet	-12.0762
RETURN	-12.0762
complexContent	-12.077
KeyStore	-12.0774
radio	-12.0777
JSONArray	-12.0781
Fire	-12.0781
Millis	-12.0783
hal	-12.0784
shader	-12.0787
cwd	-12.0788
--------	-12.0789
BUTTON	-12.0791
Aggregator	-12.0797
指定	-12.0797
toCharArray	-12.0798
NaN	-12.0798
а	-12.0798
translated	-12.0799
ou	-12.08
Reverse	-12.0801
variance	-12.0805
copied	-12.0806
Embedding	-12.081
places	-12.0811
hits	-12.0814
BA	-12.0816
ApiField	-12.082
configurations	-12.0825
med	-12.0825
OPTIONS	-12.0829
cloudbreak	-12.083
系统	-12.0831
activiti	-12.0832
bpmn	-12.0834
estimate	-12.0835
ies	-12.0845
描述	-12.0846
sRequest	-12.0846
BIT	-12.0847
How	-12.0849
MessageType	-12.0851
CountDownLatch	-12.0854
spell	-12.0854
VALID	-12.0854
life	-12.0855
getChild	-12.0858
parcel	-12.086
mime	-12.0862
accessToken	-12.0865
getLong	-12.0866
earth	-12.0868
Src	-12.0873
tion	-12.0874
Histogram	-12.0876
digital	-12.0876
polarsys	-12.0877
notebook	-12.0877
MAIN	-12.0881
Checkpoint	-12.0882
CORBA	-12.0884
Spider	-12.0884
数组	-12.0884
("");	-12.0884
taskId	-12.0884
tid	-12.0887
Creating	-12.0891
INTERVAL	-12.0892
Sent	-12.0894
stem	-12.0894
WHITE	-12.0896
RC	-12.0899
Break	-12.09
webhook	-12.0901
Closeable	-12.0907
tracks	-12.0911
Coin	-12.0913
Verifier	-12.0916
bench	-12.0916
celery	-12.0918
wh	-12.0918
lot	-12.092
inflate	-12.0921
记录	-12.0927
bro	-12.0928
rewards	-12.0929
immutable	-12.0929
sites	-12.093
bounding	-12.0931
referenced	-12.0934
books	-12.0937
cid	-12.0939
Dialect	-12.0943
ValidationException	-12.0945
Members	-12.0947
objectMapper	-12.0951
letters	-12.0955
VISIBLE	-12.0959
designates	-12.0959
properly	-12.0964
lhs	-12.0964
zza	-12.0968
sampled	-12.0968
#############################	-12.0969
("/")	-12.0969
represented	-12.0972
ResourceBundle	-12.0973
Routing	-12.0975
Envelope	-12.0978
skin	-12.098
()];	-12.0981
hudson	-12.0982
newArrayList	-12.0983
Percent	-12.0984
FULL	-12.0984
Spell	-12.0987
Square	-12.0987
cmap	-12.0991
者	-12.0992
Recording	-12.0995
JWT	-12.0996
STYLE	-12.0996
Defines	-12.0997
Conditional	-12.0998
Arm	-12.0998
COPYING	-12.1002
')]	-12.1002
stable	-12.1002
readline	-12.1002
JCObject	-12.1007
Confirm	-12.1007
partitions	-12.101
linkedin	-12.101
argmax	-12.1012
Uniform	-12.1012
tencent	-12.1013
已	-12.1019
AE	-12.1023
printer	-12.1026
Fn	-12.1026
jsp	-12.1029
区	-12.1029
与	-12.1029
Mini	-12.1029
Parts	-12.103
__),	-12.103
boto	-12.1032
builders	-12.1035
更新	-12.1035
PLUGIN	-12.1035
preserve	-12.1036
Io	-12.1037
bk	-12.1039
Hu	-12.1042
house	-12.1043
LOAD	-12.1043
syn	-12.1049
spot	-12.1051
getPort	-12.1053
abi	-12.1053
enough	-12.1054
实现	-12.1056
"</	-12.1061
indexed	-12.1062
IA	-12.1063
#---------------------------------------------------------------	-12.1063
therefore	-12.1068
epam	-12.1068
COL	-12.1072
Pad	-12.1075
次	-12.1076
Ingredient	-12.108
Reactive	-12.1083
“	-12.1084
mult	-12.1085
lit	-12.1087
Days	-12.1087
moves	-12.109
imread	-12.1092
expansion	-12.1095
toUpperCase	-12.1104
nv	-12.1105
serviceName	-12.1106
BaseCommand	-12.1106
abort	-12.1108
StringUtil	-12.1112
tolist	-12.1113
SS	-12.1114
Pod	-12.1115
trees	-12.1117
INF	-12.1121
relevant	-12.1124
pwd	-12.1124
elastic	-12.1128
FC	-12.1128
ObjectType	-12.113
utc	-12.113
weighted	-12.1131
nonce	-12.1136
shot	-12.1138
错误	-12.1139
patches	-12.1139
acquire	-12.114
取	-12.114
Sig	-12.1141
uploads	-12.1142
xxx	-12.1145
getComponent	-12.1146
rollback	-12.1146
你	-12.1147
Lexer	-12.1148
Cube	-12.1149
frozen	-12.115
polling	-12.115
setOnClickListener	-12.1151
Jo	-12.1154
fps	-12.1155
led	-12.1157
Prepare	-12.1158
multiplier	-12.1159
MouseEvent	-12.116
Turn	-12.1161
RDF	-12.1164
wise	-12.1168
getPosition	-12.1169
okhttp	-12.1172
())));	-12.1178
("\\	-12.1178
sch	-12.1181
Velocity	-12.1182
limited	-12.1183
Station	-12.1183
mpi	-12.1192
dual	-12.1192
DEF	-12.1192
所有	-12.1192
applies	-12.1197
getHost	-12.1199
getActivity	-12.12
'}';	-12.1203
Calls	-12.1204
Counts	-12.1207
blueprint	-12.1209
MR	-12.1212
Proc	-12.1212
mutable	-12.1214
banner	-12.1215
clf	-12.1217
billing	-12.1223
Connected	-12.1224
[]{"	-12.1227
\'	-12.1232
xl	-12.1233
combination	-12.1241
Ver	-12.1247
IPv	-12.1248
Bill	-12.1252
gb	-12.1252
od	-12.1253
Negative	-12.1255
opengl	-12.1256
Rec	-12.1256
USERNAME	-12.1256
Quest	-12.1258
ylabel	-12.1262
vote	-12.1264
wave	-12.1264
Water	-12.1266
WEB	-12.1268
chp	-12.1268
!\	-12.1269
LogFactory	-12.1269
sending	-12.127
('./	-12.1275
Toolbar	-12.1279
having	-12.1283
AutoField	-12.1285
ndim	-12.1286
SR	-12.1291
desktop	-12.1297
isdir	-12.1299
Cli	-12.13
hero	-12.1301
deps	-12.1302
NAMES	-12.1304
Div	-12.1305
iface	-12.1309
appId	-12.131
Campaign	-12.1311
isNotNull	-12.1317
Definitions	-12.1318
freeze	-12.1318
recording	-12.1321
sBy	-12.1324
Reward	-12.1328
Numbers	-12.1329
discount	-12.1329
quot	-12.1331
pydantic	-12.1331
What	-12.1332
outputStream	-12.1336
PrivateKey	-12.1336
ontology	-12.1345
Iter	-12.1345
Grammar	-12.1346
had	-12.1346
Three	-12.1348
Jobs	-12.1348
BAR	-12.1349
ResponseUnmarshaller	-12.135
medium	-12.1353
cnn	-12.1354
openhab	-12.1354
ResourceType	-12.1355
Advice	-12.1355
storm	-12.1359
valor	-12.1363
ftp	-12.1364
HASH	-12.1365
pen	-12.1366
KNIME	-12.1366
PG	-12.1368
Append	-12.1368
separated	-12.1372
RpcRequest	-12.1373
fgov	-12.1373
pragma	-12.1375
stanford	-12.1379
化	-12.1381
MatcherAssert	-12.1381
DateFormat	-12.1382
SSH	-12.1382
fu	-12.1383
"^	-12.1384
FileReader	-12.1386
tier	-12.1386
Comparison	-12.1387
Beta	-12.1389
Jan	-12.1392
advanced	-12.1393
MethodsReturnNonnullByDefault	-12.1398
vp	-12.1406
Market	-12.1408
unlock	-12.1411
News	-12.1412
RATE	-12.1412
commerce	-12.1413
wind	-12.1414
presentation	-12.1415
purposes	-12.1416
Sha	-12.1416
album	-12.1418
Flat	-12.142
severity	-12.1421
Developers	-12.1421
contextLoads	-12.1424
interpolate	-12.1425
reporter	-12.1427
Blueprint	-12.1431
DESC	-12.1436
profiler	-12.1437
quota	-12.1439
clamp	-12.1447
LivingEntity	-12.1449
jenkins	-12.1453
sal	-12.1457
addTo	-12.1458
testcase	-12.1462
trust	-12.1465
keycloak	-12.1467
tel	-12.1467
Linked	-12.1467
explicitly	-12.1469
highlight	-12.1479
rendered	-12.1481
makes	-12.1484
declared	-12.1485
getInputStream	-12.1492
ju	-12.1493
OM	-12.1494
RequestContext	-12.1495
classic	-12.1496
antlr	-12.1496
nic	-12.1497
fac	-12.1501
milliseconds	-12.1504
moving	-12.1504
sale	-12.1505
ization	-12.1507
StringTokenizer	-12.1509
以	-12.1514
"]),	-12.1516
slider	-12.1518
postgres	-12.1518
pivot	-12.152
mvp	-12.153
calculation	-12.1538
Poll	-12.1541
gallery	-12.1541
toJson	-12.1543
Coord	-12.1543
登录	-12.1546
much	-12.1551
nz	-12.1555
WebElement	-12.1556
MULTI	-12.1559
higher	-12.1562
InMemory	-12.1563
Analytics	-12.1565
LC	-12.1566
STORE	-12.1571
Locations	-12.1571
collision	-12.1574
Allocation	-12.158
converters	-12.1583
FileWriter	-12.1583
ized	-12.1585
JAVA	-12.1585
colour	-12.1586
}</	-12.1586
Buf	-12.1588
getServer	-12.1588
NC	-12.1589
Minimum	-12.1591
Forge	-12.1591
assertIsInstance	-12.1592
Mapped	-12.1595
Shield	-12.1599
LDAP	-12.1599
biome	-12.1602
Reflection	-12.1602
Modification	-12.1604
MEDIA	-12.1607
considered	-12.1608
intercept	-12.1608
filesystem	-12.1608
metamodel	-12.1612
ConnectionFactory	-12.1614
alula	-12.1617
Configurable	-12.1619
Related	-12.1619
gas	-12.1621
GraphQL	-12.1624
ApiResponse	-12.1624
setRequestId	-12.1624
activities	-12.1624
jooq	-12.1626
Abs	-12.1627
CFG	-12.163
Finish	-12.163
Manage	-12.163
Gaussian	-12.1631
BorderLayout	-12.1635
fan	-12.1637
Tooltip	-12.1637
authenticated	-12.1638
ohmygod	-12.1639
Harness	-12.164
Placeholder	-12.1641
appContext	-12.1642
ban	-12.1643
Advanced	-12.1644
exports	-12.1644
Touch	-12.1644
或	-12.1651
tvm	-12.1652
mnist	-12.1655
LS	-12.1655
ND	-12.1656
neighbor	-12.1657
BN	-12.1658
JsonIgnore	-12.1659
tell	-12.1659
nearest	-12.1662
FE	-12.1665
Queries	-12.1668
Watcher	-12.167
Mob	-12.167
structures	-12.1673
tmpl	-12.1674
longValue	-12.1675
excluded	-12.1677
ist	-12.1678
research	-12.1681
SHOW	-12.1681
reversed	-12.1681
dg	-12.1684
Seed	-12.1684
Gradient	-12.1689
diagnostics	-12.1689
getView	-12.1692
fish	-12.1695
txn	-12.1696
repeated	-12.1699
HAS	-12.17
pix	-12.17
jb	-12.1707
Configurer	-12.1708
onError	-12.171
identify	-12.1714
DM	-12.1716
distances	-12.1719
级	-12.1721
retrofit	-12.1725
Universal	-12.1725
Clinical	-12.1725
locked	-12.1725
traffic	-12.1732
styles	-12.1734
CHANGE	-12.1739
字段	-12.174
REGISTRY	-12.1745
across	-12.1745
JavaScript	-12.1747
Epoch	-12.1747
CUSTOM	-12.1749
Align	-12.1751
wei	-12.1751
sales	-12.1753
Compile	-12.1754
swift	-12.1754
Wrapped	-12.1754
wheel	-12.1756
preferred	-12.1763
ChangeEvent	-12.1765
InetSocketAddress	-12.1767
debugger	-12.1773
story	-12.1774
olat	-12.1777
日志	-12.1777
entire	-12.178
tracer	-12.178
Decode	-12.1781
drag	-12.1782
JVM	-12.1783
injector	-12.1784
getCause	-12.1785
retrieved	-12.1786
kp	-12.1786
editable	-12.1792
dos	-12.1793
ApiOperation	-12.1795
findall	-12.1799
EventBus	-12.18
ub	-12.1801
Terms	-12.1802
Just	-12.1802
xi	-12.1803
Building	-12.1803
DATASET	-12.1803
Drag	-12.1806
"."	-12.1806
ting	-12.1806
randomUUID	-12.1808
PE	-12.1812
iterate	-12.1812
nm	-12.1813
InvocationTargetException	-12.1813
中的	-12.1814
FieldType	-12.1815
权限	-12.1819
chan	-12.1825
zy	-12.1827
cron	-12.183
Ezy	-12.1832
Decl	-12.1833
Submission	-12.1833
Resolve	-12.1837
tbl	-12.1838
traj	-12.1838
hashlib	-12.1839
mpl	-12.1839
线程	-12.184
oci	-12.1841
Activator	-12.1842
rstrip	-12.1847
OPTION	-12.1849
prim	-12.1851
Netty	-12.1851
gettext	-12.1854
deserialized	-12.1855
MageInt	-12.1856
mal	-12.1857
ips	-12.186
permute	-12.186
filled	-12.1861
SPACE	-12.1862
correlation	-12.1863
Soft	-12.1865
compose	-12.1865
fly	-12.1866
Age	-12.1866
knowledge	-12.1869
wraps	-12.1871
ChannelHandlerContext	-12.1872
包	-12.1873
Black	-12.1875
DOT	-12.1877
dh	-12.1882
ot	-12.1883
;</	-12.1883
Acl	-12.1884
king	-12.1885
checkArgument	-12.1889
potential	-12.189
Clone	-12.1896
Threads	-12.1897
Github	-12.1898
CASE	-12.1904
subnet	-12.1908
Std	-12.1908
Catch	-12.1913
Spatial	-12.1914
downsample	-12.1915
Voice	-12.1919
renamed	-12.1919
Band	-12.192
why	-12.1922
生	-12.1922
...')	-12.1927
Arc	-12.1932
ud	-12.1932
opengis	-12.1933
modeling	-12.1933
Agreement	-12.1933
DROP	-12.1934
Between	-12.1937
DP	-12.1937
Temporal	-12.1944
MLP	-12.1948
folders	-12.1951
leg	-12.1952
Encode	-12.1954
jna	-12.1954
wifi	-12.1957
dataclasses	-12.1959
Weather	-12.196
callSuper	-12.1961
matrices	-12.1962
generators	-12.1963
kotlin	-12.1964
carbon	-12.1965
Unsafe	-12.1967
Psi	-12.1971
写	-12.1976
FileType	-12.1977
IntegrationTest	-12.1978
addListener	-12.1978
anonymous	-12.1981
ComboBox	-12.1984
getUsername	-12.1987
Need	-12.1988
ink	-12.1989
内容	-12.1989
Large	-12.199
StringIO	-12.1993
Keep	-12.1993
continuous	-12.1996
chosen	-12.1996
playlist	-12.2002
jun	-12.2007
Sources	-12.201
getS	-12.2011
Mutation	-12.2013
JsonElement	-12.202
graphs	-12.2021
FX	-12.2025
BL	-12.2026
Inv	-12.2028
rmi	-12.2028
GREEN	-12.2034
RANGE	-12.2034
EnumFacing	-12.2035
procedure	-12.2036
Rename	-12.2038
JDK	-12.2044
gradients	-12.2044
放	-12.2045
stubs	-12.2046
exclusive	-12.2047
STORAGE	-12.2049
jobId	-12.2049
Parcelable	-12.2051
picture	-12.2051
等	-12.2053
GA	-12.2055
David	-12.2057
concurrency	-12.2059
oo	-12.2063
offline	-12.2063
getResourceAsStream	-12.2064
Hidden	-12.2065
yi	-12.2073
当	-12.2075
Also	-12.2075
к	-12.2076
<?>[]	-12.2079
klass	-12.2081
EM	-12.2081
authority	-12.2082
gm	-12.2085
RFC	-12.2085
spacing	-12.2092
yaw	-12.2093
getPassword	-12.2093
用于	-12.2094
RestTemplate	-12.2096
LY	-12.2097
б	-12.2097
ValueType	-12.2097
drawing	-12.2099
TD	-12.21
posts	-12.21
tol	-12.21
performed	-12.2101
ZonedDateTime	-12.2101
ClientException	-12.2102
itemStack	-12.2104
NBTTagCompound	-12.2107
Err	-12.2108
getNum	-12.211
Micro	-12.2112
Blog	-12.2112
"};	-12.212
getColumn	-12.2123
Scheduled	-12.2125
computation	-12.2135
species	-12.2136
indicated	-12.2137
agpl	-12.2137
subplot	-12.214
attached	-12.215
Sentence	-12.215
lan	-12.2154
Startup	-12.2155
я	-12.2155
Clean	-12.2156
Operand	-12.2158
Dispatch	-12.2163
****************************************************************	-12.2164
Interpreter	-12.2164
Annotated	-12.2168
Placement	-12.2169
Here	-12.2172
slash	-12.2176
Signed	-12.2177
everything	-12.2177
METADATA	-12.218
ASTNode	-12.2185
标	-12.2185
Cas	-12.2186
marked	-12.2187
itemView	-12.2189
Offer	-12.2189
Tracer	-12.2189
realpath	-12.219
djangoproject	-12.2191
IService	-12.2194
edition	-12.2194
Watch	-12.2196
predictor	-12.2198
brand	-12.2201
Claim	-12.2202
lexer	-12.2203
typeName	-12.2203
avro	-12.2206
ARG	-12.2207
Accessors	-12.2208
BOOLEAN	-12.2208
kodlamaio	-12.222
rewrite	-12.222
retval	-12.2222
wo	-12.2223
Ko	-12.2224
Comments	-12.2224
forum	-12.2226
Assessment	-12.2226
```	-12.2226
DESCRIPTOR	-12.2228
Poly	-12.2228
Subscribe	-12.2231
matmul	-12.2232
能	-12.2233
XPath	-12.2233
Zoom	-12.2235
StringWriter	-12.2235
ServiceClient	-12.2237
early	-12.2239
udf	-12.2239
MethodType	-12.224
tsv	-12.2241
大	-12.2241
expired	-12.2242
Aws	-12.2247
gzip	-12.2249
Air	-12.2253
wrappers	-12.2258
goodB	-12.2259
Green	-12.2259
于	-12.2259
jpc	-12.2259
Charge	-12.226
odoo	-12.226
NumberFormatException	-12.226
rid	-12.2261
objs	-12.2266
GO	-12.227
returning	-12.227
anti	-12.2272
metaclass	-12.2278
quad	-12.2279
Indicates	-12.228
voxel	-12.228
topk	-12.2281
fusion	-12.2284
FA	-12.2285
wi	-12.2287
Detect	-12.2289
Ready	-12.2291
HA	-12.2291
EXCEPTION	-12.2293
Patterns	-12.2297
EditText	-12.2297
NotBlank	-12.2298
spy	-12.2298
stroke	-12.2298
Dependent	-12.2299
路径	-12.2299
RP	-12.23
Clip	-12.23
pq	-12.2304
Versions	-12.2305
alive	-12.2306
postgresql	-12.231
NOI	-12.2312
连接	-12.2314
[:]	-12.2315
SCRIPT	-12.2315
Promise	-12.232
Horizontal	-12.2324
AccessLevel	-12.2325
这个	-12.2326
Broadcast	-12.2326
Vault	-12.2328
survey	-12.2331
Swap	-12.2335
”	-12.2338
SharedPreferences	-12.2346
guest	-12.2347
IV	-12.2349
"-"	-12.2351
draft	-12.2363
mixed	-12.2364
convertTo	-12.2365
LM	-12.2366
charts	-12.2368
页	-12.2369
Dim	-12.2369
Repeat	-12.2372
clustering	-12.2374
AndroidJUnit	-12.2374
Norm	-12.2377
Chars	-12.2377
wl	-12.2378
few	-12.2378
plural	-12.238
动	-12.238
assertArrayEquals	-12.238
og	-12.2384
getResponse	-12.2385
Conditions	-12.2387
Documents	-12.2391
ihmc	-12.2394
Alt	-12.2394
т	-12.2395
ow	-12.2395
emoji	-12.2396
xlabel	-12.2398
BLUE	-12.2401
brain	-12.2402
hack	-12.2404
addAttribute	-12.2406
PROCESS	-12.2406
MODIFY	-12.2411
lens	-12.2411
phrase	-12.2412
exporter	-12.2414
purchase	-12.2415
Mar	-12.2416
webapp	-12.2416
GPIO	-12.2418
corners	-12.242
shortcut	-12.2421
EL	-12.2424
Marshaller	-12.2425
DR	-12.2426
BD	-12.2428
AutoConfiguration	-12.2429
iReSqtkUVg	-12.243
VAL	-12.2435
ang	-12.2436
IBlockState	-12.2442
flake	-12.2442
MBean	-12.2443
Percentage	-12.2445
Tier	-12.2446
XXX	-12.2452
ASCII	-12.2455
han	-12.2455
初始化	-12.2456
Assembly	-12.2456
faster	-12.2464
bonitasoft	-12.2465
Configurator	-12.2466
")]	-12.2467
CreateModel	-12.2469
battle	-12.2472
innovateuk	-12.2472
CLOSE	-12.2474
GroupLayout	-12.2481
Man	-12.2481
nuxeo	-12.2481
fasta	-12.2482
zi	-12.2483
crash	-12.2483
memo	-12.2483
quant	-12.2484
readonly	-12.2484
stamp	-12.2487
ji	-12.2487
JadxDecompiler	-12.2489
checkpoints	-12.249
guard	-12.2493
sandbox	-12.2495
xrange	-12.2497
qr	-12.2497
padded	-12.2498
puzzle	-12.2498
getStart	-12.2501
Approved	-12.2507
OpenGL	-12.2515
bob	-12.2515
mall	-12.2516
videos	-12.2517
datatypes	-12.2518
JOIN	-12.2521
LEN	-12.2532
flowable	-12.2532
LOCK	-12.2532
presto	-12.2533
Odoo	-12.2533
listed	-12.2535
Jump	-12.2537
expire	-12.2538
groovy	-12.2538
calculated	-12.2538
canonical	-12.2539
Importer	-12.254
Quote	-12.254
nodeId	-12.2541
dmn	-12.2546
affine	-12.2548
="",	-12.2548
hdf	-12.2551
isAssignableFrom	-12.2552
[%	-12.2557
Channels	-12.2557
发送	-12.2558
latex	-12.2559
代码	-12.2559
Production	-12.2562
NG	-12.2564
interrupt	-12.2569
Replication	-12.2569
quest	-12.2573
costs	-12.2578
overwritten	-12.2578
Codes	-12.2578
gram	-12.2578
ticker	-12.2581
hh	-12.2582
viewers	-12.2587
ado	-12.2589
Dec	-12.259
Attach	-12.259
inflater	-12.2591
bid	-12.2593
PP	-12.2595
visualization	-12.26
retries	-12.2601
SCALE	-12.2602
CALL	-12.2603
validated	-12.2608
vocabulary	-12.2608
think	-12.2615
interp	-12.2616
webdriver	-12.2616
sup	-12.2616
MessageDigest	-12.2616
sage	-12.2619
presenter	-12.2622
NPC	-12.2624
FieldName	-12.2625
Good	-12.2626
flux	-12.2628
sessionId	-12.2629
*****	-12.2629
Offline	-12.263
注意	-12.2631
relay	-12.2634
MethodNode	-12.2635
角色	-12.2636
Noise	-12.2642
Motion	-12.2643
terminate	-12.2643
zA	-12.2644
Appender	-12.2645
sentinel	-12.2648
genome	-12.2648
Shutdown	-12.2652
cancelled	-12.2656
workbook	-12.2656
getInput	-12.2657
za	-12.2659
setMax	-12.2659
LP	-12.2661
Animator	-12.2662
mutation	-12.2663
sentry	-12.2665
cleaned	-12.2665
TestHelper	-12.2666
Diagnostic	-12.2667
presets	-12.2669
actionPerformed	-12.267
Portions	-12.2672
管理	-12.2672
frac	-12.2674
creature	-12.2676
属性	-12.2677
imported	-12.2677
DEFINE	-12.2678
SINGLE	-12.2682
mann	-12.2686
getTag	-12.2687
fault	-12.2691
RequestHandler	-12.2695
teacher	-12.2695
skipped	-12.2696
columnName	-12.2696
Checked	-12.2697
iteritems	-12.2698
Severity	-12.2698
expanded	-12.2701
Wire	-12.2701
加	-12.2703
Fit	-12.2704
无	-12.2708
Movement	-12.2709
Plain	-12.271
verifier	-12.2718
订单	-12.2719
qc	-12.2721
gu	-12.2726
SAXException	-12.2728
没有	-12.2728
satisfied	-12.2729
isNotEmpty	-12.2732
contribution	-12.2732
函数	-12.2733
covered	-12.2736
MY	-12.2738
{}\	-12.2739
rms	-12.2743
----	-12.2747
YEAR	-12.2749
Workbook	-12.275
rfc	-12.275
getMetadata	-12.2757
wm	-12.2758
getDisplayName	-12.276
descriptors	-12.2761
FR	-12.2765
Sphinx	-12.2766
assertSame	-12.2767
slim	-12.2775
browse	-12.2775
Raises	-12.2776
Tap	-12.2779
minimal	-12.2782
kd	-12.2783
sudo	-12.2784
unsigned	-12.2789
/(?	-12.2791
ErrorMessage	-12.2793
Hide	-12.2793
|\	-12.2794
Hw	-12.2795
addComponent	-12.2795
Sparse	-12.2796
就	-12.2797
GS	-12.2797
piece	-12.2798
ov	-12.2799
vmware	-12.28
rw	-12.28
food	-12.2805
VARCHAR	-12.2807
buckets	-12.281
('',	-12.2811
Controls	-12.2813
开始	-12.2822
identifying	-12.2823
qualified	-12.2823
cdap	-12.2824
getParameters	-12.2824
triangle	-12.2825
consider	-12.2827
whitespace	-12.2827
FAILURE	-12.2831
FUNCTION	-12.2831
Prompt	-12.2834
ya	-12.2838
WebDriver	-12.2842
mixins	-12.2842
lineno	-12.2847
plantuml	-12.2847
Categories	-12.2849
流	-12.285
Margin	-12.2851
FONT	-12.2852
proposals	-12.2852
TableField	-12.2852
Presentation	-12.2852
Du	-12.2853
pressed	-12.2853
jet	-12.2856
Pull	-12.2857
Maker	-12.286
ddd	-12.2861
Swagger	-12.2863
面	-12.2865
Joint	-12.2867
Radio	-12.2868
propOrder	-12.2871
Song	-12.2872
SL	-12.2873
pseudo	-12.2874
Requires	-12.2875
expiration	-12.2875
nukkit	-12.2879
ini	-12.2879
getMin	-12.2882
setObjectName	-12.2882
Camel	-12.2883
jj	-12.2886
URISyntaxException	-12.2889
tipo	-12.2889
opennms	-12.2891
Fallback	-12.2892
gw	-12.2892
Attention	-12.2893
secrets	-12.2894
QL	-12.2894
namedtuple	-12.2894
warp	-12.2898
Dark	-12.2904
Destroy	-12.2904
bases	-12.2907
Calc	-12.2908
Compose	-12.291
getAnnotation	-12.291
á	-12.2911
serve	-12.2915
kmehr	-12.2915
tweet	-12.2916
follows	-12.2919
opened	-12.2921
Coordinates	-12.2921
rem	-12.2922
PD	-12.2926
回	-12.2929
Gate	-12.2932
STOP	-12.2933
verbosity	-12.2934
contiguous	-12.2934
SW	-12.2935
campaign	-12.2935
getTable	-12.2936
MoPropertyMeta	-12.2937
happen	-12.2939
ted	-12.294
Vertical	-12.294
CUDA	-12.2942
dirty	-12.2946
shiro	-12.2947
particles	-12.2949
Sa	-12.2952
Hyper	-12.2952
joints	-12.2953
Friend	-12.2953
Temperature	-12.2954
isfile	-12.2956
MAC	-12.2959
gpus	-12.2962
isn	-12.2962
subclasses	-12.2967
FB	-12.2969
brackets	-12.2974
线	-12.2975
保存	-12.2975
scm	-12.2976
AtomicBoolean	-12.2978
yellow	-12.298
ensemble	-12.298
Jpa	-12.2981
JPA	-12.2981
Restart	-12.2983
kg	-12.2985
Macro	-12.2987
fragments	-12.2988
adapt	-12.2989
nargs	-12.2989
ua	-12.2989
wildcard	-12.2991
bmc	-12.2992
Trait	-12.2993
Inter	-12.2996
constellio	-12.2998
ApplicationTests	-12.3
trino	-12.3007
Notifier	-12.3007
assembly	-12.3009
Recorder	-12.301
Exceptions	-12.3012
largest	-12.3013
exam	-12.3013
Btn	-12.3013
described	-12.3015
increase	-12.3015
Bio	-12.302
Par	-12.302
filtering	-12.3021
Products	-12.3021
Michael	-12.3021
dead	-12.3021
thumb	-12.3027
ending	-12.3028
saving	-12.3028
Ring	-12.3029
heading	-12.3029
Assets	-12.3031
NE	-12.3033
Best	-12.3033
TX	-12.3034
getPage	-12.3035
CoreMatchers	-12.3037
lead	-12.3037
YAML	-12.3038
dependent	-12.3043
upstream	-12.3044
subtract	-12.3046
voc	-12.3046
Combo	-12.3053
Si	-12.3054
Sorted	-12.3054
kun	-12.3054
Wiki	-12.3055
Office	-12.3057
Crop	-12.3061
Vars	-12.3065
getIcon	-12.3065
Possible	-12.3066
pat	-12.3069
blur	-12.3077
quartz	-12.3082
Opcodes	-12.3083
BOX	-12.3087
Specifies	-12.3088
JavaClass	-12.309
Tr	-12.309
primitives	-12.3091
Tipo	-12.3091
Jwt	-12.3093
JSONException	-12.3093
Protection	-12.3094
automation	-12.3095
assemblyFullName	-12.3096
produces	-12.3098
MILLISECONDS	-12.3099
crc	-12.3099
jnp	-12.3101
observations	-12.3102
AtomicLong	-12.3102
trajectory	-12.3104
SH	-12.3105
svc	-12.3105
mapstruct	-12.3107
designer	-12.3108
计算	-12.311
这	-12.3113
Prediction	-12.3114
层	-12.3116
domainObject	-12.3117
firebase	-12.3118
jetty	-12.312
unset	-12.3121
Positive	-12.3121
getToken	-12.3125
LIB	-12.3126
vip	-12.3126
Billing	-12.3127
forth	-12.3128
motor	-12.3129
CNN	-12.3129
futures	-12.313
eventType	-12.3132
vert	-12.3133
stages	-12.3134
pooling	-12.3135
INIT	-12.3135
sparql	-12.3135
deprecation	-12.3135
sta	-12.3136
Ack	-12.3137
concrete	-12.314
Instrument	-12.3145
FACTORY	-12.3145
central	-12.3146
invalidate	-12.3148
Concrete	-12.3149
coder	-12.3151
PARSER	-12.3153
starter	-12.3154
beginning	-12.3155
Samples	-12.3157
getID	-12.3158
boost	-12.3161
Strip	-12.3161
extraction	-12.3162
hints	-12.3162
TimeSeries	-12.3163
TypeReference	-12.3167
conversation	-12.3171
pil	-12.3173
ian	-12.3174
Rx	-12.3175
只	-12.3177
\""	-12.3177
answers	-12.3179
upl	-12.3179
accepts	-12.3181
xiao	-12.3181
MotionEvent	-12.3182
Way	-12.3184
FEATURE	-12.3188
sFor	-12.3188
PROPERTIES	-12.3191
Recovery	-12.3194
TL	-12.3198
conditional	-12.3199
factors	-12.32
hardcoded	-12.32
수	-12.3202
texts	-12.3202
cxf	-12.3203
variants	-12.3204
商品	-12.3208
annotate	-12.3209
MQ	-12.3209
assessment	-12.3216
gcp	-12.3216
Ctrl	-12.3216
]]:	-12.3219
invoker	-12.3221
DOC	-12.3221
Rep	-12.3221
relations	-12.3228
POTENTIAL	-12.3229
getWorld	-12.3229
orient	-12.3231
rather	-12.3234
proper	-12.3235
ENABLE	-12.3236
Perform	-12.3237
Easy	-12.3239
facade	-12.3239
simply	-12.3241
alternative	-12.3242
GenerationType	-12.3245
JsonArray	-12.3248
Parsed	-12.3248
ObjectId	-12.3252
FRAME	-12.3252
NOQA	-12.3253
keypoints	-12.3253
VK	-12.3257
BUILD	-12.326
Study	-12.326
FLAW	-12.3261
/$',	-12.3261
approx	-12.3263
Credit	-12.3264
ATION	-12.3267
Ar	-12.3267
highest	-12.3268
footer	-12.3273
textures	-12.3274
basicConfig	-12.3275
SAMPLE	-12.3275
But	-12.3277
AV	-12.328
rom	-12.3286
Views	-12.329
Human	-12.3292
TEXTURE	-12.3292
tn	-12.3293
sense	-12.3294
Choose	-12.3294
Hour	-12.3295
glyph	-12.3298
RL	-12.3299
Acc	-12.3299
calculator	-12.33
NoSuchAlgorithmException	-12.33
OrBuilder	-12.3302
Precision	-12.3302
moved	-12.3303
cod	-12.3303
TOPIC	-12.3304
jpeg	-12.3305
Requested	-12.3306
mar	-12.3312
JComponent	-12.3315
qos	-12.3318
builds	-12.3318
wu	-12.3322
HOLDER	-12.3322
Once	-12.3324
closest	-12.3325
('/')	-12.3327
ric	-12.3327
formatting	-12.3328
experiments	-12.3331
PASS	-12.3332
Trend	-12.3332
IRI	-12.3333
dup	-12.3333
Snippet	-12.3333
matsim	-12.334
GridData	-12.3343
数据库	-12.3344
meth	-12.3349
Jvm	-12.335
列	-12.3351
í	-12.3351
Wall	-12.3352
tenantId	-12.3352
Grant	-12.3354
hf	-12.3354
trainable	-12.3355
ROW	-12.3356
trip	-12.3357
#!	-12.3357
orderId	-12.3358
Mu	-12.3358
sy	-12.3359
LoadBalancer	-12.3361
recipes	-12.3364
相	-12.3369
connectors	-12.3372
assertions	-12.3374
isBlank	-12.3374
([])	-12.3378
setSize	-12.3379
keystore	-12.338
addons	-12.3382
Food	-12.3382
stopped	-12.3383
La	-12.3383
Vote	-12.3384
mouseX	-12.3385
на	-12.3386
extent	-12.3388
alembic	-12.3392
allocation	-12.3393
mg	-12.3394
War	-12.3395
testName	-12.3397
MDME	-12.3398
空	-12.3399
cq	-12.3404
Rev	-12.3406
ApiClient	-12.3407
Instrumentation	-12.3408
replication	-12.3413
Bindings	-12.3414
grp	-12.3414
baidu	-12.3417
simulate	-12.3417
buffers	-12.3418
SearchResult	-12.3419
Drive	-12.342
Existing	-12.3424
CATEGORY	-12.3424
KB	-12.3427
propagate	-12.343
itextpdf	-12.343
unsupported	-12.3431
Round	-12.3434
going	-12.3437
LOGIN	-12.3439
主	-12.344
ident	-12.344
critical	-12.344
ENTRY	-12.3441
arquillian	-12.3444
Challenge	-12.3447
blockchain	-12.3447
jmh	-12.3449
Popen	-12.3451
idle	-12.3451
jersey	-12.3451
smtp	-12.3452
FloatTensor	-12.3454
sn	-12.3454
markers	-12.3456
Cfg	-12.3457
ン	-12.3458
sorting	-12.346
smaller	-12.3462
categorical	-12.3462
googlecode	-12.3463
hasSize	-12.3466
cascade	-12.3467
Mqtt	-12.3467
RO	-12.3467
Atomic	-12.3468
dll	-12.3475
oh	-12.3475
getAttributes	-12.3478
apt	-12.3478
imagenet	-12.3479
Encoded	-12.3481
Pan	-12.3483
sap	-12.3484
GLES	-12.3486
ExtendWith	-12.349
angles	-12.3491
userService	-12.3493
flight	-12.3496
新	-12.3496
fromJson	-12.3497
dz	-12.3497
PROVIDER	-12.3498
SK	-12.3499
tck	-12.35
ThreadPool	-12.3505
Compression	-12.3507
readme	-12.3508
fitness	-12.351
解	-12.351
ü	-12.3511
模式	-12.3518
slide	-12.3518
bash	-12.3519
Anim	-12.352
RF	-12.3521
Developer	-12.3522
Picture	-12.3525
LIGHT	-12.3527
Insets	-12.3528
格式	-12.3533
rospy	-12.3534
nova	-12.3534
选	-12.3541
tolerance	-12.3544
Concurrent	-12.3545
Packages	-12.3546
ACL	-12.3549
Atlas	-12.3549
QUEUE	-12.3552
isSelected	-12.3557
north	-12.3558
addProperty	-12.3559
Individual	-12.3561
Ssl	-12.3565
COMMENT	-12.3566
contacts	-12.3566
cw	-12.3567
Fetcher	-12.357
nom	-12.357
Al	-12.357
wr	-12.3571
ListItem	-12.3571
installation	-12.3571
Daniel	-12.3572
requestUrl	-12.3573
SPI	-12.3575
Already	-12.3578
NETWORK	-12.3578
法	-12.3581
项目	-12.3582
expires	-12.3586
Iteration	-12.3586
doubleValue	-12.3589
nat	-12.359
hid	-12.3591
near	-12.3591
mw	-12.3592
lint	-12.3594
triggered	-12.3594
discard	-12.3599
STEP	-12.36
combo	-12.3602
Always	-12.3603
scales	-12.3605
openide	-12.3606
foreign	-12.3608
Correct	-12.3612
mouseY	-12.3614
pot	-12.3617
attempts	-12.3617
street	-12.3617
Brand	-12.3619
deque	-12.362
Dungeon	-12.362
dagger	-12.3621
Ldap	-12.3624
HL	-12.3626
builtins	-12.363
little	-12.3632
mono	-12.3632
PropertyDescriptor	-12.3635
Plugins	-12.3636
ENDPOINT	-12.3636
solutions	-12.3638
Monitoring	-12.364
Mediator	-12.3645
Connections	-12.3649
longest	-12.365
failures	-12.3653
timing	-12.3653
comma	-12.3658
downgrade	-12.3659
QueryParam	-12.366
association	-12.3661
Cover	-12.3662
Handlers	-12.3667
Customizer	-12.367
recovery	-12.367
replica	-12.3671
Banner	-12.3672
reached	-12.3673
Membership	-12.3675
Album	-12.3677
FILES	-12.3678
Positions	-12.3678
Vendor	-12.3679
DIRECTORY	-12.3682
five	-12.3683
"]";	-12.3684
RA	-12.3686
Expand	-12.3687
Enterprise	-12.3687
NodeId	-12.3691
Wifi	-12.3692
FIX	-12.3692
homepage	-12.3693
EXTENSION	-12.3696
cifar	-12.3698
shardingsphere	-12.3698
BS	-12.3699
HANDLER	-12.3702
TestData	-12.3704
editing	-12.3704
getPackageName	-12.3708
JsonValue	-12.3711
marshal	-12.3711
copyOf	-12.3714
原	-12.3718
recorder	-12.3719
HS	-12.3722
important	-12.3723
Lnet	-12.3724
Blocking	-12.3726
prec	-12.3726
InstrumentationRegistry	-12.3728
URLs	-12.3729
rnd	-12.3729
school	-12.373
maker	-12.3731
Gauge	-12.3731
ctrip	-12.3735
providing	-12.3736
heat	-12.3741
Thrown	-12.3741
Take	-12.3743
Reading	-12.3748
Parsing	-12.3751
Beans	-12.3754
Translate	-12.3756
holds	-12.3757
collate	-12.3757
managers	-12.3758
isActive	-12.3759
=[],	-12.3759
Rendering	-12.3759
adam	-12.376
Restriction	-12.3761
getSub	-12.3761
har	-12.3764
requirement	-12.3771
millis	-12.3775
attachments	-12.3776
cog	-12.3776
facing	-12.3776
Dom	-12.3777
TE	-12.3778
sdf	-12.378
Dis	-12.3782
BLACK	-12.3783
flatMap	-12.3785
JSONField	-12.3785
Drawing	-12.3786
QQ	-12.3788
distributing	-12.3793
unk	-12.3793
ensures	-12.3794
RES	-12.3796
天	-12.3801
Inherited	-12.3802
WindowManager	-12.3803
vpc	-12.3804
TypeVar	-12.3805
Ni	-12.3807
objectweb	-12.3807
Armor	-12.3808
ComponentScan	-12.3811
变	-12.3812
jdi	-12.3814
nome	-12.3816
Social	-12.3816
("./	-12.3816
Cr	-12.382
GAN	-12.3821
Institute	-12.3821
应用	-12.3821
NotEmpty	-12.3822
Sam	-12.3824
savefig	-12.3826
getOutput	-12.3826
captcha	-12.3829
开	-12.3832
CLUSTER	-12.3832
geotools	-12.3835
CollectionUtils	-12.3837
Converts	-12.3837
Draft	-12.3839
Kubernetes	-12.3839
bone	-12.384
Inst	-12.3842
Modifications	-12.3842
larger	-12.3844
getDeclaredField	-12.3844
ah	-12.3845
ali	-12.3849
attrib	-12.385
REGEX	-12.3851
codehaus	-12.3851
OSI	-12.3852
Pageable	-12.3855
Semantic	-12.3856
viz	-12.3859
Caller	-12.3861
Gl	-12.3864
Colour	-12.3868
xmlns	-12.3875
detailed	-12.3875
andExpect	-12.3876
pu	-12.3876
Caching	-12.3878
'{}'	-12.3879
DataObject	-12.388
CONTROL	-12.3882
CLASSES	-12.3884
Expressions	-12.3884
clinical	-12.3887
aaa	-12.3887
Todo	-12.3887
door	-12.3889
participant	-12.389
Echo	-12.389
PROTOCOL	-12.3891
productId	-12.3892
getActive	-12.3893
Cl	-12.3895
observable	-12.3896
资源	-12.3899
cutoff	-12.3901
Cassandra	-12.3902
leader	-12.3903
TreeSet	-12.3904
Avatar	-12.3905
가	-12.3907
ConfigurationException	-12.3908
Attempt	-12.3909
department	-12.3909
Cleanup	-12.391
DataStore	-12.3913
homeassistant	-12.3922
talk	-12.3924
hydra	-12.3925
Outline	-12.3925
testCase	-12.3926
Studio	-12.3927
Mirror	-12.3927
passing	-12.3927
Leg	-12.3927
Serialize	-12.3928
TimeoutException	-12.3928
NF	-12.3929
Docs	-12.393
cucumber	-12.393
usually	-12.3931
zo	-12.3932
QA	-12.3933
pac	-12.3934
Za	-12.3934
subscriptions	-12.3936
Inference	-12.3937
outline	-12.394
Helpers	-12.3942
addChild	-12.3944
HP	-12.3945
broken	-12.3946
writeLine	-12.3947
Pop	-12.3947
SYS	-12.3949
drill	-12.3956
fsf	-12.3956
ard	-12.3961
protoc	-12.3961
WINDOW	-12.3962
iz	-12.3965
fy	-12.3968
Probe	-12.3969
proxies	-12.3969
Flight	-12.3974
NL	-12.3976
raster	-12.3977
getIdentifier	-12.3977
bed	-12.3978
Cnt	-12.3982
reach	-12.3982
UInt	-12.3984
())))	-12.3992
cdi	-12.3993
hy	-12.3993
repos	-12.3994
Ma	-12.3995
actors	-12.3995
CODES	-12.3997
getBase	-12.4002
Chrome	-12.4002
acao	-12.4005
booleanValue	-12.4005
REG	-12.4005
visualize	-12.4005
ux	-12.4008
DateTimeFormatter	-12.4008
About	-12.4009
FILENAME	-12.4009
addItem	-12.401
latch	-12.4012
Actual	-12.4014
portfolio	-12.4016
Rotate	-12.4021
密码	-12.4021
Apple	-12.4028
Battle	-12.4031
getFrom	-12.4032
ProcessClass	-12.4034
Lag	-12.4035
aliyun	-12.4037
plots	-12.4038
grads	-12.4039
cons	-12.4042
ProgressBar	-12.4046
getSelected	-12.4047
downloaded	-12.4047
trademark	-12.4051
ViewSet	-12.4051
typed	-12.4053
locks	-12.4054
IntStream	-12.4054
dss	-12.4055
Fluent	-12.4056
rsp	-12.4056
Pagination	-12.4057
mud	-12.4059
srv	-12.4061
fluent	-12.4061
tracing	-12.4064
setCode	-12.4064
getDate	-12.4067
Traffic	-12.4068
paragraph	-12.4068
Chest	-12.4068
Providers	-12.407
KV	-12.4074
Registered	-12.4074
访问	-12.4076
Identification	-12.4078
TV	-12.4079
Cards	-12.408
race	-12.408
isDebugEnabled	-12.4083
rawtypes	-12.4083
several	-12.4084
geode	-12.4087
性	-12.4088
Into	-12.4091
fpn	-12.4097
addAbility	-12.4098
Ray	-12.41
UnsupportedEncodingException	-12.41
ori	-12.4103
budget	-12.4103
:],	-12.4103
Letter	-12.4109
AUTHOR	-12.411
Signer	-12.4115
StartTime	-12.4116
Enchantment	-12.4116
UnitTest	-12.4117
Edition	-12.4124
Triple	-12.4127
auc	-12.413
Sonatype	-12.4133
____	-12.4139
()+"	-12.4139
OwnedBy	-12.4139
xchange	-12.414
Exist	-12.414
FILL	-12.4143
Projects	-12.4146
Resolved	-12.4147
sts	-12.4147
facet	-12.4148
objid	-12.4148
ddl	-12.4149
penalty	-12.4152
Ws	-12.4152
Gtk	-12.4154
CK	-12.4157
Fact	-12.4158
instrumentation	-12.416
friend	-12.416
qi	-12.4161
Hard	-12.4161
={},	-12.4161
Coder	-12.4162
ij	-12.4162
Martin	-12.4163
LogLevel	-12.4164
mov	-12.4164
INTO	-12.4164
Servers	-12.4167
Streams	-12.4167
)</	-12.4168
Press	-12.4169
ham	-12.4169
Hot	-12.417
produced	-12.4173
StatusCode	-12.4173
Locked	-12.4174
rcnn	-12.4176
wikipedia	-12.4176
[{"	-12.4179
trying	-12.4179
sanitize	-12.4182
GE	-12.4183
hdfs	-12.4183
qty	-12.4185
csrf	-12.4186
ug	-12.4186
CoreException	-12.4187
dicts	-12.4193
Look	-12.4199
SortOrder	-12.42
版本	-12.4201
jira	-12.4201
Edges	-12.4201
sen	-12.4204
quotes	-12.4208
种	-12.4209
chdir	-12.4213
spans	-12.4217
/*-	-12.4218
oas	-12.4218
wings	-12.4227
SMS	-12.4228
dialogs	-12.4229
文	-12.423
interest	-12.4231
Fraction	-12.4231
Jun	-12.4233
occur	-12.4233
Purchase	-12.4236
Dr	-12.4237
м	-12.4239
youtube	-12.424
thrift	-12.4241
头	-12.4243
Bl	-12.4244
网	-12.4245
ION	-12.4246
RefVo	-12.4249
HealthCheck	-12.425
gplx	-12.4251
lookups	-12.4252
coordinator	-12.4264
namespaces	-12.4264
Lin	-12.4265
Mc	-12.4267
updater	-12.4267
LOW	-12.4269
Regression	-12.4271
如	-12.4272
vlan	-12.4273
HIGH	-12.4275
FORM	-12.4276
Cut	-12.428
yarn	-12.4281
executing	-12.4284
THREAD	-12.4285
Directive	-12.4286
dateTime	-12.4287
BitSet	-12.4292
reject	-12.4294
?",	-12.4295
gy	-12.4296
加载	-12.4297
Exact	-12.43
midpoint	-12.4301
Encrypt	-12.4301
Ignite	-12.4304
invite	-12.4305
cmds	-12.4306
))))	-12.4307
standalone	-12.431
Frames	-12.431
aligned	-12.431
hashes	-12.4311
monkeypatch	-12.4311
Policies	-12.4312
Flush	-12.4313
opcRequestId	-12.4316
indexing	-12.4323
issuer	-12.4325
unix	-12.4325
PROFILE	-12.4325
obtained	-12.4328
traversal	-12.4328
VS	-12.433
Explorer	-12.433
lastIndexOf	-12.4333
Accuracy	-12.4334
Mi	-12.4336
ы	-12.4337
amqp	-12.4341
'../_	-12.4343
mechanism	-12.4344
GRAY	-12.4347
GH	-12.4351
decompiled	-12.4354
ServiceProvider	-12.4355
alloc	-12.4362
Picker	-12.4363
paid	-12.4364
hg	-12.4368
pal	-12.4368
lw	-12.4369
Hashtable	-12.437
支持	-12.4372
JCNativeException	-12.4373
positional	-12.4376
saml	-12.438
tune	-12.438
isDirectory	-12.4381
FD	-12.4383
ky	-12.4384
Ro	-12.4387
SCOPE	-12.439
缓存	-12.4391
BytesIO	-12.4394
openspcoop	-12.4396
polyform	-12.44
spectrum	-12.4402
Palette	-12.4402
natj	-12.4403
debugging	-12.4405
DI	-12.4405
caching	-12.4406
derivative	-12.4408
PostConstruct	-12.4411
Checksum	-12.4414
mission	-12.4416
wagtail	-12.4417
zoo	-12.4417
checkout	-12.4419
English	-12.4423
zhang	-12.4424
自定义	-12.4425
을	-12.4426
Stored	-12.4426
ErrorHandler	-12.4427
sem	-12.4428
]));	-12.4428
DEV	-12.4428
QueryBuilder	-12.4428
cmake	-12.4429
violation	-12.443
They	-12.4431
JFrame	-12.4434
getNew	-12.4434
Idle	-12.4434
getR	-12.4435
sPer	-12.4435
='')	-12.4438
Es	-12.4447
goto	-12.4449
startActivity	-12.445
advance	-12.4453
xo	-12.4456
Increment	-12.4456
Reads	-12.446
VR	-12.4461
mention	-12.4463
setHeader	-12.4464
RESET	-12.4464
--)	-12.4465
显示	-12.4465
suppress	-12.4465
truncate	-12.4465
howto	-12.4466
fontsize	-12.4468
TRACE	-12.447
nickname	-12.4471
fingerprint	-12.4473
pieces	-12.4474
SV	-12.4474
Ret	-12.4474
DSL	-12.4478
"\\	-12.4481
Processed	-12.4486
Boundary	-12.4488
Grpc	-12.449
POSITION	-12.449
previously	-12.4491
Handling	-12.4493
Optimization	-12.4493
road	-12.4495
Cpu	-12.4497
Overflow	-12.4497
GF	-12.45
slope	-12.4503
Proposal	-12.4503
TH	-12.4504
事件	-12.4504
releases	-12.4505
Runs	-12.4505
=").	-12.4509
membership	-12.451
translateException	-12.4515
jt	-12.4516
idl	-12.4518
:\\	-12.4519
ClassNode	-12.452
coeff	-12.4521
Exclude	-12.4523
locationtech	-12.4523
Yang	-12.4525
wide	-12.4527
Intel	-12.4527
ECLIPSE	-12.4527
YES	-12.4529
Disposable	-12.4529
disc	-12.4529
neutral	-12.4531
Privilege	-12.4534
Alibaba	-12.4534
snake	-12.4535
Ontology	-12.4539
atol	-12.454
findFirst	-12.4545
APIs	-12.4546
strength	-12.4547
============	-12.4551
FSF	-12.4552
ACC	-12.4553
JsonParser	-12.4553
duplicates	-12.4557
meaning	-12.4557
Operating	-12.4564
Initialization	-12.4565
SB	-12.4568
uma	-12.4569
BaseEntity	-12.457
{:.	-12.457
figsize	-12.4573
coins	-12.4574
enclosed	-12.4575
apk	-12.4578
定义	-12.4578
sku	-12.458
oldValue	-12.4583
SUPPORTED	-12.4584
sns	-12.4591
rates	-12.4591
bugvm	-12.4591
POOL	-12.4593
GridBagConstraints	-12.4594
TT	-12.4594
nist	-12.4595
TAB	-12.4597
PV	-12.4598
Transient	-12.4599
regenerated	-12.4599
HR	-12.4603
Known	-12.4607
speaker	-12.4608
critic	-12.461
ApplicationScoped	-12.461
를	-12.4611
HD	-12.4612
에	-12.4612
prototype	-12.4613
pn	-12.4613
metaData	-12.4619
tanh	-12.4621
alice	-12.4623
Trust	-12.4624
coef	-12.4627
PARENT	-12.4631
SD	-12.4632
outgoing	-12.4634
jmx	-12.4638
BUNDLE	-12.4639
Absolute	-12.4645
NP	-12.4648
ku	-12.4648
triple	-12.4648
lar	-12.4654
bond	-12.4654
Uses	-12.4658
PID	-12.4658
OID	-12.4662
putAll	-12.4667
Raster	-12.467
Journal	-12.4674
observed	-12.4675
Intended	-12.4676
loaders	-12.4676
deserializer	-12.4677
openstreetmap	-12.4678
ALLOWED	-12.468
discover	-12.468
DISPLAY	-12.4681
LED	-12.4682
hover	-12.4682
ParameterizedTest	-12.4683
Webhook	-12.4686
tan	-12.4689
adorsys	-12.4691
zkoss	-12.4692
generating	-12.4693
AbstractModel	-12.4693
una	-12.4695
ToStringBuilder	-12.4699
--------------------------------------------------------------	-12.4701
SUFFIX	-12.4703
rocketmq	-12.4703
timeline	-12.4707
readOnly	-12.4709
CallbackInfo	-12.471
Md	-12.4711
Avro	-12.4712
SECOND	-12.4712
Configured	-12.4715
Fs	-12.4718
rpn	-12.472
LL	-12.4722
xowa	-12.4723
POLICY	-12.4725
Notifications	-12.4728
CacheManager	-12.4729
allocated	-12.473
MF	-12.4735
Availability	-12.4736
CommandSender	-12.4737
taketoday	-12.4737
ski	-12.4737
Ti	-12.4737
$',	-12.4738
AtomicReference	-12.4738
iq	-12.4739
putQueryParameter	-12.4739
describing	-12.474
Receipt	-12.474
Organisation	-12.4744
squared	-12.4745
wsdl	-12.4747
DELAY	-12.4749
Follow	-12.4751
Emitter	-12.4751
BACK	-12.4752
FIELDS	-12.4753
ROI	-12.4754
getDescriptor	-12.4755
invert	-12.4757
readValue	-12.4758
Nav	-12.4758
colorbar	-12.476
operate	-12.4762
SF	-12.4763
getStatusCode	-12.4764
apiVersion	-12.4767
Saved	-12.4768
tron	-12.4768
Dns	-12.4769
corresponds	-12.4769
getOffset	-12.4769
ledger	-12.4769
undefined	-12.477
Devices	-12.4771
Tail	-12.4772
Ac	-12.4773
contest	-12.4773
Shortcut	-12.4775
BP	-12.4777
FileDescriptor	-12.4777
toolbox	-12.4777
'../	-12.4778
IMG	-12.478
watcher	-12.478
ends	-12.4786
recyclerview	-12.4789
GM	-12.479
Hardware	-12.4791
Elem	-12.4792
artemis	-12.4793
splitlines	-12.4793
merchant	-12.4794
ModelAdmin	-12.4794
addHandler	-12.4795
facts	-12.4795
orange	-12.4796
IDENTIFIER	-12.4797
Activate	-12.4797
JCType	-12.4799
RANDOM	-12.4801
{};	-12.4802
())).	-12.4803
LA	-12.4803
outputFile	-12.4809
vanilla	-12.4814
RULE	-12.4814
implicit	-12.4815
izer	-12.4819
Quad	-12.4819
Discount	-12.4822
resourceId	-12.4822
openmrs	-12.4825
holding	-12.4825
п	-12.4826
CREATED	-12.4827
alternate	-12.4827
jkiss	-12.4828
Holding	-12.4828
TestClass	-12.483
setSelected	-12.4831
SN	-12.4831
downloader	-12.4832
Recursive	-12.4832
twilio	-12.4836
Guard	-12.4839
dbc	-12.4841
drools	-12.4844
Serialized	-12.4845
Da	-12.4845
HttpServlet	-12.4846
Embed	-12.4847
Previous	-12.4851
判断	-12.4851
columnIndex	-12.4854
osm	-12.4854
EJB	-12.4854
HU	-12.4855
Partner	-12.4856
############################	-12.4857
HttpSession	-12.4858
Pref	-12.4861
Door	-12.4861
体	-12.4861
depending	-12.4863
Provide	-12.4863
hdr	-12.4865
sar	-12.4868
Violation	-12.4872
Invite	-12.4872
assertAlmostEqual	-12.4874
Piece	-12.4875
LinkedHashSet	-12.4876
Arn	-12.4876
foobar	-12.4877
aggregator	-12.4878
ach	-12.488
PLAIN	-12.4881
dialogflow	-12.4883
behaviour	-12.4884
brightness	-12.4887
Flowable	-12.4895
verts	-12.4897
getM	-12.4898
集	-12.4898
Agg	-12.4899
ZoneId	-12.49
Internet	-12.4901
Slack	-12.4908
Solutions	-12.4908
getLevel	-12.4913
Digit	-12.4914
Kill	-12.4917
recycle	-12.492
TypeInfo	-12.4922
WebView	-12.4923
thoughtworks	-12.4925
*********************************************************	-12.4929
customers	-12.493
nick	-12.4933
Imports	-12.4935
gid	-12.4937
Nothing	-12.4937
RECORD	-12.494
blocked	-12.4942
ChatColor	-12.4944
ocr	-12.4945
ObjectName	-12.4947
의	-12.4948
xt	-12.495
')[	-12.495
Br	-12.4951
Lower	-12.4952
MalformedURLException	-12.4952
outcome	-12.4952
AutoRest	-12.4952
internet	-12.4954
SRC	-12.4954
droid	-12.4958
MONTH	-12.4959
van	-12.496
inception	-12.4961
IBinder	-12.4963
非	-12.4963
Spinner	-12.4966
EQ	-12.4968
thickness	-12.4971
packed	-12.4971
UserRole	-12.4972
ObjectFactory	-12.4972
Swing	-12.4977
james	-12.498
Ga	-12.4983
getUserId	-12.4984
ance	-12.4984
datadog	-12.4984
USD	-12.4986
SOAP	-12.4986
submitted	-12.499
rmtree	-12.4991
years	-12.4993
uima	-12.4995
nexus	-12.4996
Calculation	-12.4997
entityManager	-12.5
Interfaces	-12.5004
getP	-12.5004
Dead	-12.5005
KeyPair	-12.5006
Forms	-12.5009
prep	-12.5009
preset	-12.5015
inclusive	-12.5015
visitors	-12.5016
("$	-12.5017
ung	-12.5026
away	-12.5027
Evaluate	-12.5028
commercetools	-12.503
getWriter	-12.5031
removeAll	-12.5037
Encrypted	-12.5039
secs	-12.504
les	-12.5044
libc	-12.5046
worksheet	-12.5047
AttributeValue	-12.5047
MANAGER	-12.5052
getOwner	-12.5052
augment	-12.5052
MI	-12.5055
reduced	-12.5058
PROXY	-12.5061
arbitrary	-12.5061
Risk	-12.5063
词	-12.5063
GWT	-12.5064
vuln	-12.5064
hb	-12.5065
Highlight	-12.5066
official	-12.5068
aspectj	-12.5068
fonts	-12.507
Filtered	-12.507
Traversal	-12.5074
forecast	-12.5075
bugs	-12.5077
AfterClass	-12.5077
IG	-12.5078
Inf	-12.5079
Sleep	-12.5079
Alg	-12.5082
Commons	-12.5083
HORIZONTAL	-12.5085
pypi	-12.5085
fall	-12.5086
statistic	-12.5087
cdn	-12.509
dji	-12.509
phoenix	-12.5092
deck	-12.5092
Life	-12.5095
BundleContext	-12.5095
EOH	-12.5096
Front	-12.51
Indexes	-12.51
instantiated	-12.5103
refactoring	-12.5105
autograd	-12.5106
Implement	-12.5106
BG	-12.5107
OWL	-12.5108
Downloader	-12.5108
EXISTS	-12.5108
grouping	-12.5108
movement	-12.5112
heatmap	-12.5114
remain	-12.5115
though	-12.5115
lex	-12.5115
finos	-12.5117
Su	-12.5118
机	-12.512
都	-12.5121
floating	-12.5122
dry	-12.5125
SAVE	-12.5126
SI	-12.5126
ItemType	-12.5127
Camunda	-12.5128
Estimator	-12.513
ajax	-12.5131
MessageFormat	-12.5132
CONTAINER	-12.5134
Prob	-12.5134
RUNNING	-12.5135
struts	-12.5135
continuation	-12.5137
는	-12.5139
Profiler	-12.5141
外	-12.5145
travel	-12.5145
UserName	-12.5146
strategies	-12.5146
REGION	-12.5148
Accounts	-12.5149
Segments	-12.5151
Orders	-12.5153
OSError	-12.5153
trailing	-12.5154
zu	-12.5154
pkt	-12.5157
Dimensions	-12.5159
Sc	-12.5159
高	-12.5159
MessageHandler	-12.5159
业务	-12.5162
Fun	-12.5162
blacklist	-12.5164
内	-12.5164
trademarks	-12.5165
inserted	-12.5169
COMPONENT	-12.5169
passes	-12.5171
"./	-12.5171
BeautifulSoup	-12.5174
isCorrect	-12.5174
-------------	-12.5176
responsible	-12.5177
ethz	-12.5178
splitext	-12.5178
Na	-12.5179
ning	-12.5181
pressure	-12.5183
Discord	-12.5183
nifi	-12.5185
UV	-12.5186
dan	-12.5187
Rollback	-12.5188
neural	-12.5191
birt	-12.5191
gravitee	-12.5191
IModel	-12.5193
entityId	-12.5195
getDocument	-12.5198
FLOW	-12.5198
ARM	-12.5198
apereo	-12.5199
While	-12.5199
Iso	-12.52
crs	-12.5201
corba	-12.5202
CAT	-12.5205
PropertyType	-12.5206
getRuntime	-12.5206
Did	-12.5207
EXTERNAL	-12.521
SPEC	-12.5217
bos	-12.5217
prefixes	-12.5219
Collision	-12.522
loan	-12.5226
textView	-12.5227
AGENT	-12.5227
Similarity	-12.5229
dyn	-12.5229
Icons	-12.5231
polardbx	-12.5234
getEnd	-12.5235
Sky	-12.5235
slices	-12.5235
groupName	-12.5235
公	-12.5236
FileUtil	-12.5238
setParent	-12.5239
noinspection	-12.5244
joda	-12.5244
TableModel	-12.5245
mimeType	-12.5245
Potion	-12.5253
finalize	-12.5254
SITE	-12.5254
molecule	-12.5256
instant	-12.5258
articles	-12.5258
triggers	-12.5259
Markdown	-12.526
startDate	-12.526
getGroup	-12.5261
dock	-12.5261
fork	-12.5262
emitter	-12.5263
Pt	-12.5264
LinearLayout	-12.5265
WebService	-12.5266
pom	-12.5267
moment	-12.5267
UserDetails	-12.5267
PARAMS	-12.5269
optimizers	-12.527
Tracing	-12.5273
NoSuchElementException	-12.5273
指	-12.5273
learner	-12.5277
:"+	-12.5277
writeTo	-12.5278
CMS	-12.5283
Indent	-12.5285
Datasource	-12.529
Qu	-12.529
PRIMARY	-12.5292
UserProfile	-12.5294
placement	-12.5294
Rich	-12.5295
Peter	-12.5296
Let	-12.5296
setContent	-12.5297
unwrap	-12.5298
Bookmark	-12.5299
executeQuery	-12.53
fk	-12.5303
lowercase	-12.5304
SecureRandom	-12.5305
rds	-12.5305
ways	-12.5305
数量	-12.5307
probably	-12.5308
exploit	-12.5308
natural	-12.5308
<>());	-12.5315
scp	-12.5315
MO	-12.5319
getRandom	-12.532
respect	-12.5322
给	-12.5324
ium	-12.5325
writeString	-12.5325
排序	-12.5327
Weighted	-12.5328
deposit	-12.5329
Got	-12.5332
verb	-12.5332
Gecko	-12.5333
TU	-12.5335
getSchema	-12.5337
contexts	-12.5339
Coding	-12.534
flows	-12.5341
europa	-12.5343
slave	-12.5343
Regular	-12.5344
explorer	-12.5345
Either	-12.5346
NodeType	-12.5347
Creative	-12.5348
XS	-12.535
getChannel	-12.5352
WORD	-12.5356
ker	-12.5356
portlet	-12.5357
Grouping	-12.5362
wolf	-12.5363
userid	-12.5368
Ab	-12.5368
PackageManager	-12.5369
urlparse	-12.5369
dia	-12.537
platforms	-12.537
:</	-12.5371
cirq	-12.5373
solid	-12.5374
Replacement	-12.5375
roots	-12.5375
JsonDeserialize	-12.5375
Ticks	-12.5376
sut	-12.5383
nonzero	-12.5383
Twitter	-12.5384
EF	-12.5384
distributions	-12.5385
iloc	-12.5388
XYZ	-12.5388
ful	-12.5389
counters	-12.5389
Specify	-12.5394
---------------------------------------------------------------	-12.5395
lag	-12.5396
caps	-12.5398
ModelAndView	-12.54
OPERATION	-12.5401
Ifc	-12.5403
quiet	-12.5404
Timeline	-12.5404
signer	-12.5404
aiohttp	-12.5406
updating	-12.5409
StateMachine	-12.5412
intensity	-12.5412
Transactions	-12.5414
ModelRenderer	-12.5414
ResponseStatus	-12.5416
Splitter	-12.5417
BINARY	-12.5418
taotao	-12.5418
------	-12.5419
COMMON	-12.5419
PB	-12.5419
pmd	-12.5421
Datastore	-12.5423
Paper	-12.5425
EV	-12.5427
zen	-12.5428
Paragraph	-12.543
mot	-12.5431
SAML	-12.5436
zookeeper	-12.5437
mind	-12.5437
activemq	-12.544
OT	-12.5441
制	-12.5443
bv	-12.5444
TRANSACTION	-12.5445
chance	-12.5445
fuse	-12.5445
Waiting	-12.5448
Leave	-12.5451
ToTensor	-12.5452
SECURITY	-12.5453
Mixed	-12.5454
Creature	-12.5455
hao	-12.5456
Recipient	-12.5457
PhoneNumber	-12.5457
Readable	-12.5458
diagonal	-12.5459
ating	-12.5461
grouped	-12.5464
isi	-12.5464
Relational	-12.5467
方式	-12.5469
claims	-12.547
Sampling	-12.5475
lut	-12.5477
wa	-12.548
BGR	-12.5482
los	-12.5482
Inspector	-12.5486
lz	-12.5487
SGD	-12.5487
MAGIC	-12.549
Staff	-12.549
Closure	-12.5491
InsnDecoder	-12.5497
Ship	-12.5499
’	-12.5499
carry	-12.5499
season	-12.5503
Literals	-12.5503
LocalTime	-12.5504
PLAYER	-12.5505
alphabet	-12.5505
DER	-12.5507
存在	-12.5507
先	-12.5508
men	-12.551
IL	-12.5512
battery	-12.5512
heartbeat	-12.5516
abstracts	-12.5517
Outer	-12.5517
unsafe	-12.5518
Overview	-12.5519
Pick	-12.552
ProcessInstance	-12.5521
propagation	-12.5522
reaction	-12.5524
HashCode	-12.5527
位置	-12.553
envelope	-12.553
Regions	-12.553
DataModel	-12.5532
armor	-12.5536
datum	-12.5537
Undefined	-12.5537
permanent	-12.5538
Seg	-12.5538
Listing	-12.5539
spam	-12.5546
QT	-12.5547
doGet	-12.5553
IOError	-12.5555
verified	-12.5556
looking	-12.556
enforce	-12.556
Sh	-12.5561
standards	-12.5564
Extend	-12.5571
skeleton	-12.5571
evaluated	-12.5576
Urls	-12.558
JOptionPane	-12.558
Coordinator	-12.5582
getQuery	-12.5585
ParameterSet	-12.559
Indexer	-12.5591
Christian	-12.5592
Npc	-12.5592
Adding	-12.5593
funcs	-12.5594
fid	-12.5594
putInt	-12.5594
Reports	-12.5595
vl	-12.5595
("")	-12.5595
mos	-12.5595
scaler	-12.5596
itr	-12.5596
BI	-12.5597
InstantiationException	-12.5601
nil	-12.5601
Initialized	-12.5604
总	-12.5604
cdt	-12.5606
isIn	-12.561
doctest	-12.561
chem	-12.561
Digital	-12.5612
RNN	-12.5612
Daily	-12.5613
Gravity	-12.5618
端	-12.562
BoundingBox	-12.5621
LT	-12.5624
Debugger	-12.5625
pipelines	-12.5627
Reduce	-12.5629
PyTorch	-12.5632
midi	-12.5633
Mul	-12.5635
CAN	-12.5635
discrete	-12.5635
torrent	-12.5636
svm	-12.5636
Third	-12.5637
blaze	-12.5638
IGNORE	-12.5639
entityType	-12.5641
lvl	-12.5642
CON	-12.5644
latency	-12.5651
getNumberOf	-12.5653
Tu	-12.5654
setAccessible	-12.5655
地	-12.5657
getValues	-12.5659
Implements	-12.5659
期	-12.5659
decoding	-12.5661
Ru	-12.5662
ger	-12.5662
compact	-12.5663
REPORT	-12.5665
modal	-12.5665
physics	-12.5665
liu	-12.5667
getApplicationContext	-12.5668
boss	-12.5669
传	-12.5669
NB	-12.567
ffi	-12.5671
feign	-12.5673
好	-12.5678
reported	-12.5681
EOF	-12.5681
Ki	-12.5682
changing	-12.5683
httpClient	-12.5684
parseLong	-12.5687
immediately	-12.5688
jinja	-12.569
Fingerprint	-12.5692
长度	-12.5694
placed	-12.5696
SecurityException	-12.5697
twisted	-12.5697
ка	-12.5697
getHeaders	-12.5699
|=	-12.5704
ago	-12.5704
rois	-12.5705
inheritance	-12.5705
Unix	-12.5707
Cal	-12.5709
Confirmation	-12.571
SEQUENCE	-12.5711
Bert	-12.5713
bArr	-12.5714
devtools	-12.5714
Checking	-12.5718
subs	-12.5721
Attrs	-12.5722
Protected	-12.5724
omega	-12.5724
readObject	-12.5726
Via	-12.5728
Targets	-12.5729
去	-12.5729
Discrete	-12.573
()])	-12.573
>'.	-12.5731
cosine	-12.5734
Under	-12.5735
sci	-12.5739
jmix	-12.5741
Pause	-12.5742
gn	-12.5742
aio	-12.5744
AIR	-12.5744
MathHelper	-12.5744
THL	-12.5746
条	-12.5747
overridden	-12.575
Replay	-12.5752
passwd	-12.5754
Freq	-12.5759
DataResult	-12.5763
GUID	-12.5763
semanticweb	-12.5764
间	-12.5764
TensorFlow	-12.5765
viaversion	-12.5766
VisibleForTesting	-12.5766
serv	-12.5768
PERMISSION	-12.5769
knime	-12.5769
fastapi	-12.577
CompoundTag	-12.5771
>";	-12.5773
remoting	-12.5773
Interpolator	-12.5775
Lo	-12.5776
')))	-12.5776
consistent	-12.5776
Markup	-12.5777
'-'	-12.5779
mes	-12.5779
drivers	-12.5781
attacker	-12.5781
Equipment	-12.5782
getItems	-12.5783
databases	-12.5784
chrom	-12.5784
barcode	-12.5784
SideOnly	-12.5785
Graphic	-12.5786
jr	-12.5787
conflict	-12.5789
Solr	-12.579
Defined	-12.579
目	-12.5791
Approval	-12.5792
belongs	-12.5794
ResourceManager	-12.5794
ThreadPoolExecutor	-12.5795
instr	-12.5795
closure	-12.5796
Reservation	-12.5797
GIS	-12.5799
JavaTM	-12.5799
setIcon	-12.5799
Compatibility	-12.58
"${	-12.5801
FailedException	-12.5802
unable	-12.5803
resourceName	-12.5804
regionId	-12.5806
Ast	-12.5809
episodes	-12.581
`):	-12.5814
importer	-12.5815
大小	-12.5817
Sym	-12.5818
Grad	-12.5823
报	-12.5823
JMS	-12.5823
Networks	-12.5824
ContextConfiguration	-12.5829
readString	-12.5835
usb	-12.5837
ding	-12.584
rss	-12.5841
shows	-12.5842
Sales	-12.5843
PathParam	-12.5845
LD	-12.5847
FL	-12.5848
grab	-12.5848
ioc	-12.5852
deterministic	-12.5852
BOTTOM	-12.5854
authorized	-12.5854
Another	-12.5859
Incorrect	-12.5861
Daemon	-12.5862
proof	-12.5862
TypeId	-12.5864
SIMPLE	-12.5867
bam	-12.5868
sensors	-12.5869
Motor	-12.5871
Playlist	-12.5875
Messaging	-12.5876
ReportField	-12.5878
awssdk	-12.5881
collected	-12.5882
night	-12.5883
PropertySource	-12.5883
Objective	-12.5886
getOrder	-12.589
Mon	-12.589
opening	-12.589
Circuit	-12.5892
Apps	-12.5893
模型	-12.5893
Escape	-12.5893
Baseline	-12.5893
ALLOW	-12.5895
trading	-12.5895
BF	-12.5896
putExtra	-12.5898
implementing	-12.5902
scratch	-12.5903
protege	-12.5904
BufferedWriter	-12.5904
GR	-12.5905
GroupName	-12.5905
这里	-12.5907
RR	-12.5908
JR	-12.5908
leading	-12.5909
notifier	-12.5909
')],	-12.5911
TaskId	-12.5912
arxiv	-12.5912
baseUrl	-12.5914
HttpURLConnection	-12.5915
Maybe	-12.5917
translations	-12.592
promise	-12.592
setFont	-12.5921
Keywords	-12.5923
题	-12.5925
flavor	-12.5927
FT	-12.5927
[{}]	-12.5928
stackoverflow	-12.593
Handshake	-12.593
lx	-12.593
bullet	-12.5931
SIG	-12.5931
tries	-12.5932
Characters	-12.5932
divisor	-12.5934
bu	-12.5936
LANGUAGE	-12.5937
Coupon	-12.5938
tkinter	-12.5938
Del	-12.5938
ActionType	-12.5939
Engineering	-12.594
affected	-12.5941
adds	-12.5942
vfs	-12.5943
Sku	-12.5943
BK	-12.5944
Simulator	-12.5944
UDP	-12.5946
checkbox	-12.5946
pythia	-12.5947
automatic	-12.5948
appName	-12.5948
Hazelcast	-12.5948
Persist	-12.5949
Pairs	-12.5949
Guild	-12.595
PF	-12.5953
tim	-12.5954
Yu	-12.5955
getBy	-12.5956
过	-12.5961
SYNC	-12.5965
baos	-12.5967
accessible	-12.5968
snapshots	-12.5969
setIs	-12.5969
部	-12.5969
ServletContext	-12.597
EditPart	-12.5971
WAIT	-12.5971
compilation	-12.5975
setState	-12.5975
BaseException	-12.5976
Spot	-12.5977
Fabric	-12.5977
''.	-12.5977
AuthenticationException	-12.5978
功能	-12.5979
Website	-12.5981
自动	-12.5981
漏洞	-12.5983
AFTER	-12.5983
protection	-12.5983
Digits	-12.5984
traverse	-12.5984
COLUMNNAME	-12.5986
prov	-12.5988
lk	-12.5988
EXPECTED	-12.599
VIDEO	-12.5991
exponent	-12.5991
crafting	-12.5998
forest	-12.6
authorize	-12.6
CAP	-12.6001
Speech	-12.6002
OVER	-12.6005
DAG	-12.6006
ExampleUnitTest	-12.6006
runTest	-12.6007
QR	-12.6008
classType	-12.6009
/////////////////////////////////////////////////////	-12.6009
fer	-12.6009
元素	-12.6011
errno	-12.6013
environments	-12.6014
fits	-12.6014
nbsp	-12.6015
BiConsumer	-12.6016
ANNOTATION	-12.6016
iri	-12.6019
enqueue	-12.602
Does	-12.6021
shortcuts	-12.6025
getWindow	-12.6025
xr	-12.6026
contour	-12.6027
centers	-12.6029
MISSING	-12.6031
SMALL	-12.6031
rsa	-12.6033
dbeaver	-12.6034
Inverse	-12.6034
setParameter	-12.6035
Story	-12.6035
inbound	-12.6037
ENGINE	-12.6037
FilterChain	-12.6037
setField	-12.6039
fine	-12.6041
rh	-12.6042
pretrain	-12.6043
Inbound	-12.6045
truffle	-12.6046
Lua	-12.6046
ZipFile	-12.6046
labeled	-12.6051
Para	-12.6051
Eq	-12.6051
getError	-12.6053
Lightning	-12.6053
silent	-12.6054
Gradle	-12.6056
))]	-12.6057
Welcome	-12.6057
lightning	-12.6059
Portlet	-12.6059
graphic	-12.6064
Reload	-12.6065
ally	-12.6065
vcf	-12.6066
likelihood	-12.6067
进	-12.6067
oper	-12.6068
tran	-12.6068
European	-12.6069
Ant	-12.607
AVAILABLE	-12.6071
jack	-12.6074
("{}	-12.6075
pyramid	-12.6076
Handles	-12.6076
Misc	-12.6077
asctime	-12.6078
Booking	-12.6078
Deletion	-12.6078
Comm	-12.6079
userInfo	-12.6081
$",	-12.6083
huaweicloud	-12.6083
priv	-12.6084
organisation	-12.609
JsonProcessingException	-12.609
crud	-12.6092
turtle	-12.6093
scenes	-12.6094
creds	-12.6095
Ground	-12.6095
mil	-12.6096
Her	-12.6101
subsequent	-12.6103
Artist	-12.6103
explain	-12.6105
FINAL	-12.6106
TEMP	-12.6106
Adaptor	-12.6108
Gap	-12.6109
Planner	-12.6109
enemy	-12.6111
지	-12.6112
smallest	-12.6113
noop	-12.6114
"]]	-12.6114
setPassword	-12.6115
goes	-12.6116
rabbitmq	-12.6116
pur	-12.612
doReturn	-12.612
WebAclRuleStatementManagedRuleGroupStatementScopeDownStatement	-12.6121
presence	-12.6121
endDate	-12.6122
semi	-12.6124
Composition	-12.6126
BUCKET	-12.6127
Preset	-12.613
urlopen	-12.613
detections	-12.6134
sympy	-12.6135
constructors	-12.6136
tornado	-12.6137
pulse	-12.6138
getTimestamp	-12.6138
Layers	-12.6138
DOWNLOAD	-12.614
THRESHOLD	-12.6144
screenshot	-12.6148
wafv	-12.615
Merchant	-12.6153
------------	-12.6156
ley	-12.6157
WORK	-12.6157
outs	-12.6158
isInstanceOf	-12.6158
construction	-12.6161
\"\	-12.6162
Half	-12.6163
Degree	-12.6163
getOrDefault	-12.6163
BODY	-12.6163
bird	-12.6166
PropertyValue	-12.6167
读取	-12.6167
dataSet	-12.6169
locate	-12.617
levelname	-12.6171
Ajax	-12.6174
格	-12.6174
Buttons	-12.6179
服务器	-12.6179
marks	-12.618
RestClient	-12.6181
weak	-12.6182
Tunnel	-12.6184
synth	-12.6185
rabbit	-12.6188
gauge	-12.6193
Checkbox	-12.62
indexer	-12.6201
[::-	-12.6202
club	-12.6203
getRaw	-12.6205
Wx	-12.6205
yt	-12.6206
Tech	-12.6206
ErrorResponse	-12.6208
CONFIGURATION	-12.6209
MethodName	-12.621
nextLine	-12.6211
joined	-12.6211
ctor	-12.6212
setCurrent	-12.6214
nsk	-12.6216
Gray	-12.6216
queues	-12.6217
Delimiter	-12.6218
Cu	-12.6218
aware	-12.6219
Gr	-12.6221
contracts	-12.6222
addCriterion	-12.6222
WARN	-12.6222
privacy	-12.6223
SKIP	-12.6224
ctl	-12.6225
PrimaryKey	-12.6228
长	-12.6232
poses	-12.6232
calibration	-12.6233
bitcoin	-12.6233
nextDouble	-12.6234
kk	-12.6236
Minute	-12.6236
gal	-12.6236
Caption	-12.6238
다	-12.6239
west	-12.6239
Leader	-12.624
ren	-12.6246
Battery	-12.6249
outbound	-12.625
iText	-12.625
Outbound	-12.6251
物	-12.6253
White	-12.6254
xlsx	-12.6254
Dept	-12.6256
每	-12.6258
DialogInterface	-12.6258
getApplication	-12.6259
FileFilter	-12.6259
uf	-12.626
日期	-12.6261
Anti	-12.6262
roleId	-12.6262
suit	-12.6264
proceed	-12.6266
Multiplier	-12.6269
Opcode	-12.6272
Factories	-12.6272
startIndex	-12.6274
TestRunner	-12.6275
opentelemetry	-12.6277
Dash	-12.6279
subplots	-12.6279
PKCS	-12.6281
Pkg	-12.6281
hyp	-12.6281
titles	-12.6281
customize	-12.6282
包含	-12.6287
simpleType	-12.6289
Conflict	-12.629
deephaven	-12.629
н	-12.6291
john	-12.6293
partialTicks	-12.6294
Utf	-12.6294
scr	-12.6296
hotspot	-12.6297
Chooser	-12.6298
ACTIVITY	-12.6298
ign	-12.6299
Peak	-12.6307
personal	-12.6307
trait	-12.6308
salary	-12.6309
parseDouble	-12.6313
WebAclRuleStatementRateBasedStatementScopeDownStatement	-12.6314
Replica	-12.6315
ctr	-12.6316
NonNullByDefault	-12.6319
Ap	-12.6321
FactoryBean	-12.6321
Soap	-12.6322
geoserver	-12.6322
UC	-12.6324
MainWindow	-12.6324
Tri	-12.6327
Exam	-12.6329
confirmation	-12.6329
Downloads	-12.6332
自	-12.6333
OpenSearch	-12.6334
ByRef	-12.6335
MimeType	-12.6336
Walk	-12.6337
BadSource	-12.6338
ZK	-12.6342
picker	-12.6342
qualifier	-12.6343
defining	-12.6344
chk	-12.6344
certificates	-12.6346
NumberOf	-12.6347
Ind	-12.6348
CheckResult	-12.635
SecurityContext	-12.6353
yo	-12.6354
DURATION	-12.6355
remainder	-12.6356
Most	-12.6356
MIME	-12.6356
clr	-12.6357
mPath	-12.6359
recompilation	-12.6361
TOTAL	-12.6365
jclouds	-12.6366
直接	-12.6366
FormatException	-12.6368
Currently	-12.6368
semantics	-12.6369
SU	-12.6369
tot	-12.637
knowm	-12.6374
Prime	-12.6374
IB	-12.6375
bgp	-12.6376
ifPresent	-12.6376
itemId	-12.6378
Scoped	-12.6379
toHexString	-12.638
收	-12.6381
transitions	-12.6382
EO	-12.6384
intersect	-12.6384
overall	-12.6385
Clazz	-12.639
teams	-12.639
UserRepository	-12.6393
tileentity	-12.6393
理	-12.6394
に	-12.6394
meters	-12.6394
BOT	-12.6396
HandlerList	-12.6397
符	-12.6397
IDENTITY	-12.6398
profit	-12.6398
programs	-12.6399
Anonymous	-12.6399
MUST	-12.64
getLeft	-12.64
GENERAL	-12.6402
Ben	-12.6402
Explanation	-12.6405
Avg	-12.6406
Undo	-12.6406
linewidth	-12.6413
estimated	-12.6413
shipping	-12.6413
Telegram	-12.6416
jaspersoft	-12.6418
loot	-12.6418
OrderBy	-12.6418
起	-12.642
Removes	-12.6421
Derived	-12.6422
по	-12.6426
Editable	-12.6427
Probability	-12.6428
Algo	-12.643
exercise	-12.6433
getCommand	-12.6434
nanoTime	-12.6436
({})	-12.6437
Weapon	-12.6438
Lat	-12.644
StatusEnum	-12.644
logit	-12.6441
bogus	-12.6441
Barbara	-12.6441
Purpose	-12.6445
ObjectInputStream	-12.6447
第	-12.6449
Loan	-12.6449
Flex	-12.6452
former	-12.6452
PRODUCT	-12.6455
regexp	-12.6456
DISABLED	-12.6456
GeneratedMessage	-12.6456
ming	-12.6459
Mount	-12.646
DOCUMENT	-12.6461
CAR	-12.6463
handshake	-12.6463
nltk	-12.6468
QueryResult	-12.6469
consistency	-12.647
JoinColumn	-12.647
Pub	-12.647
vy	-12.6473
demand	-12.6474
addActionListener	-12.6476
作	-12.6477
OpcodeInfo	-12.6477
relauncher	-12.6478
bytearray	-12.6478
EClass	-12.6479
getList	-12.6479
rejected	-12.648
respective	-12.6481
xwiki	-12.6481
getMap	-12.6481
correction	-12.6485
REMOTE	-12.6486
jedis	-12.6488
平台	-12.6488
标签	-12.649
lark	-12.649
pars	-12.6491
cred	-12.6491
启动	-12.6492
jts	-12.6493
г	-12.6493
ingest	-12.6497
friendly	-12.6498
Trip	-12.65
Safety	-12.6501
IResource	-12.6503
REFERENCE	-12.6505
RAW	-12.6505
getUuid	-12.6506
featureID	-12.6506
signatures	-12.6506
#####	-12.6506
='%	-12.6507
其	-12.6507
Routes	-12.6509
cvp	-12.6511
Until	-12.6511
permutation	-12.6511
Sphere	-12.6511
assertIsNotNone	-12.6513
BERT	-12.6516
Profiles	-12.6516
happens	-12.6519
Different	-12.6519
Resume	-12.6519
RELEASE	-12.6521
Wave	-12.6521
newline	-12.6522
Teacher	-12.6522
Latest	-12.6524
('<	-12.6527
restTemplate	-12.6528
wechat	-12.6528
SpringBoot	-12.6529
KEYS	-12.6529
Outputs	-12.6529
ATT	-12.6529
话	-12.653
하	-12.653
addBox	-12.6531
Predictor	-12.6534
左	-12.6535
AutoValue	-12.6537
Throw	-12.6539
EvoSuite	-12.654
编码	-12.654
mic	-12.6541
Successful	-12.6541
whitelist	-12.6542
TA	-12.6544
openid	-12.6544
Accepted	-12.6546
–	-12.6548
horizon	-12.6549
Science	-12.6551
transformations	-12.6551
GoodSource	-12.6551
foreground	-12.6551
onSuccess	-12.6551
OPT	-12.6554
OC	-12.6554
Continuous	-12.6555
ALPHA	-12.6555
DefaultValue	-12.6556
parameterized	-12.6556
ial	-12.6557
ranking	-12.6559
ESP	-12.6561
ENCODING	-12.6561
Captcha	-12.6561
IEntity	-12.6568
源	-12.6568
Sep	-12.6569
VARIABLE	-12.657
QApplication	-12.657
Addresses	-12.6572
])))	-12.6572
emails	-12.6572
qm	-12.6573
PAD	-12.6575
AssemblyName	-12.6577
augmentation	-12.6577
模板	-12.6577
Reactor	-12.6579
maintenance	-12.6579
DES	-12.6579
ber	-12.6581
microprofile	-12.6585
AU	-12.6589
magnitude	-12.659
ö	-12.6592
ValidationResult	-12.6596
Worwood	-12.6596
neck	-12.6597
SVN	-12.6598
Biz	-12.66
Revises	-12.66
rain	-12.6601
machines	-12.6603
wg	-12.6606
prepared	-12.6608
datamodel	-12.6608
numero	-12.661
Glyph	-12.661
注解	-12.6611
signing	-12.6614
Compiled	-12.6615
HelloWorld	-12.6615
边	-12.6619
recommended	-12.6621
Clicked	-12.6622
TableColumn	-12.6624
PART	-12.6625
MENU	-12.6628
asynchronous	-12.663
imag	-12.6632
Slots	-12.6633
voltage	-12.6634
fuel	-12.6636
INITIAL	-12.6637
mer	-12.6638
tunnel	-12.6638
XmlEnum	-12.6639
PRIORITY	-12.664
注册	-12.664
aps	-12.664
PNG	-12.6641
로	-12.6642
\\\\	-12.6643
'.'	-12.6644
CARD	-12.6644
possibly	-12.6649
Tip	-12.6651
decl	-12.6652
Compilation	-12.6655
approved	-12.6657
copying	-12.6661
必须	-12.6661
MovingAverage	-12.6662
typically	-12.6668
GridLayout	-12.667
Middle	-12.6671
SEND	-12.6675
率	-12.6681
coefficients	-12.6682
refund	-12.6682
registers	-12.6685
cool	-12.6686
ClickListener	-12.6689
右	-12.669
Functional	-12.6691
IQ	-12.6691
crypt	-12.6693
GMT	-12.6694
ä	-12.6694
MOVE	-12.6696
RB	-12.6697
lsfusion	-12.6698
Ranges	-12.6699
marc	-12.6701
ListResponse	-12.6702
evolveum	-12.6703
las	-12.6703
Libraries	-12.6704
*****************	-12.6706
IDE	-12.6707
Dt	-12.6707
XmlSchema	-12.671
Tk	-12.6711
("}");	-12.6711
dpi	-12.6711
Naming	-12.6712
TB	-12.6713
timestamps	-12.6719
DG	-12.6722
supply	-12.6729
grow	-12.6733
isFalse	-12.6733
contextlib	-12.6734
序	-12.6735
Tb	-12.6737
stars	-12.674
Population	-12.6741
descr	-12.6745
TimeStamp	-12.6746
gives	-12.6747
AllBinary	-12.6749
getNumber	-12.6749
<?>)	-12.6752
WeakReference	-12.6753
vf	-12.6754
xu	-12.6755
Strict	-12.6755
__(**	-12.6756
executorService	-12.6756
symbolic	-12.6756
ORB	-12.6757
HashCodeBuilder	-12.6757
Tar	-12.6757
soot	-12.6761
rapidminer	-12.6761
INSTALL	-12.6761
mutate	-12.6765
Tom	-12.6765
DICT	-12.6766
House	-12.6766
IndexError	-12.6771
Vertx	-12.6771
Implicit	-12.6772
mobicents	-12.6773
portable	-12.6773
MAPPING	-12.6777
CTestCase	-12.6777
'%(	-12.6784
volumes	-12.6784
activated	-12.6785
programming	-12.6788
probabilities	-12.6789
"/&	-12.6789
assemblyShortName	-12.6789
Communication	-12.679
"]))	-12.6791
topo	-12.6793
Mix	-12.6793
udp	-12.6797
HELP	-12.6802
tvd	-12.6805
themes	-12.681
recover	-12.6811
ImageIcon	-12.6811
Refund	-12.6812
Assembler	-12.6814
DataInputStream	-12.6819
Medium	-12.6819
warehouse	-12.682
getDisplay	-12.6821
dur	-12.6822
lowest	-12.6824
Flink	-12.6827
Tls	-12.6828
Referral	-12.6829
SecretKey	-12.683
集合	-12.683
directive	-12.6831
setBackground	-12.6831
Mailbox	-12.6832
WSO	-12.6833
EXP	-12.6835
fos	-12.6836
leak	-12.6838
Germany	-12.6839
Death	-12.6841
FeignClient	-12.6843
Slide	-12.6845
TWO	-12.6845
dept	-12.6846
coefficient	-12.6847
Timing	-12.6849
Callbacks	-12.6851
ria	-12.6852
ico	-12.6853
sketch	-12.6854
protein	-12.6854
setResult	-12.6854
Consume	-12.6857
loops	-12.6858
allennlp	-12.6858
bookmark	-12.6859
=========================================================	-12.6859
Cy	-12.686
Compact	-12.686
tagged	-12.6861
Addon	-12.6861
Ljava	-12.6864
Yes	-12.6864
ster	-12.6867
connectivity	-12.6868
coupon	-12.687
Density	-12.6871
Independent	-12.6876
Txn	-12.6879
ifier	-12.6882
MySql	-12.6882
jn	-12.6883
"{\"	-12.6884
apl	-12.6885
cudnn	-12.6885
WE	-12.6888
leaves	-12.689
getDouble	-12.6891
cash	-12.6894
Provided	-12.6897
Tcp	-12.6897
itemstack	-12.6898
Sid	-12.6898
perms	-12.69
editors	-12.6902
解析	-12.6904
phys	-12.6904
webpage	-12.6905
Initializes	-12.6905
Fl	-12.6908
Uint	-12.6908
receipt	-12.6909
setUser	-12.6911
privateKey	-12.6912
NodeList	-12.6914
joining	-12.6914
predicates	-12.6914
minOccurs	-12.6915
Phrase	-12.6915
assertNotEquals	-12.6916
bands	-12.6916
Qualified	-12.692
nk	-12.6921
sequential	-12.6922
SCREEN	-12.6923
Lite	-12.6924
messageId	-12.6924
StringField	-12.6924
pem	-12.6926
branches	-12.6929
AlertDialog	-12.693
writeLog	-12.6932
|_|	-12.6932
getClassName	-12.6933
[{'	-12.6934
weixin	-12.6934
ascending	-12.6935
Written	-12.6935
executeUpdate	-12.6936
getRow	-12.6937
ServletRequest	-12.6937
FileObject	-12.6939
numerical	-12.694
gmf	-12.694
CommandContext	-12.6943
Oct	-12.6944
Stroke	-12.6944
数字	-12.6944
schemes	-12.6945
BASIC	-12.6945
Correlation	-12.6945
finance	-12.6946
Coords	-12.6949
cor	-12.696
contrast	-12.6964
tablename	-12.6965
genes	-12.6966
Continue	-12.6968
lattice	-12.697
rock	-12.6971
getSelection	-12.6971
sat	-12.6973
最大	-12.6973
Ag	-12.6979
Torch	-12.6981
Builtin	-12.6982
完成	-12.6982
convolution	-12.6985
practice	-12.6987
Players	-12.6987
getBlockState	-12.6988
isNotBlank	-12.699
Repair	-12.699
doTest	-12.699
vpn	-12.6991
CANCEL	-12.6992
aka	-12.6992
holders	-12.6996
Something	-12.6997
EA	-12.6998
Deck	-12.6999
HERE	-12.6999
orderBy	-12.6999
tanaguru	-12.7004
Ja	-12.7006
getCache	-12.7008
preprocessor	-12.7008
clipboard	-12.701
tight	-12.7011
BiFunction	-12.7014
Ho	-12.7016
存储	-12.7017
ran	-12.7019
...]	-12.7019
attributeName	-12.7022
LU	-12.7022
VirtualFile	-12.7028
Dep	-12.7028
captured	-12.7028
TESTS	-12.7028
paging	-12.7029
Week	-12.7031
明	-12.7032
zhou	-12.7033
painter	-12.7036
Chem	-12.7037
同	-12.7038
matchers	-12.7038
carrier	-12.7039
groupby	-12.7039
ArgumentCaptor	-12.704
URLConnection	-12.7044
setKey	-12.7045
welcome	-12.7049
aiplatform	-12.705
getPlugin	-12.7052
Explicit	-12.7052
combinations	-12.7054
JsonTypeInfo	-12.7055
dont	-12.7059
suggest	-12.7062
Ha	-12.7065
SECTION	-12.7065
nh	-12.7066
synapse	-12.7066
Allows	-12.7067
Modifiers	-12.7072
Codegen	-12.7074
Expired	-12.7077
insensitive	-12.7077
Footer	-12.7077
正	-12.7079
정	-12.7079
printing	-12.7081
SQLite	-12.7081
Mp	-12.7083
Extent	-12.7084
RemoveField	-12.7085
Returned	-12.7085
Roll	-12.7085
owned	-12.7086
pinpoint	-12.7092
Vi	-12.7094
interact	-12.7094
Prefs	-12.7095
his	-12.7095
plotting	-12.7098
VERTICAL	-12.7101
]\	-12.7102
tal	-12.7103
Txt	-12.7103
scenarios	-12.7104
mailbox	-12.7105
accessed	-12.7107
ARGS	-12.7111
EqualsBuilder	-12.7112
Jenkins	-12.7114
试	-12.7114
JAXBElement	-12.7114
说明	-12.7114
prof	-12.7118
__).	-12.7118
Reaction	-12.712
Gamma	-12.712
bat	-12.7121
ا	-12.7124
tensorboard	-12.7125
Sorting	-12.7125
Extraction	-12.7125
[('	-12.7128
条件	-12.7128
Weights	-12.713
chainer	-12.7132
计	-12.7133
ArgumentMatchers	-12.7135
Vis	-12.7136
shu	-12.7136
Nat	-12.7137
chromium	-12.7139
ox	-12.7139
)**	-12.714
rk	-12.714
zipfile	-12.7141
FN	-12.7141
getBundle	-12.7141
denominator	-12.7142
二	-12.7144
Art	-12.7147
Ordering	-12.7148
除	-12.7151
setTarget	-12.7151
Predicates	-12.7153
truncated	-12.7155
TestBean	-12.7156
Configurations	-12.7161
DARK	-12.7164
JTextField	-12.7166
chrome	-12.7167
tank	-12.717
Administrator	-12.717
Postgres	-12.717
Pixels	-12.7171
止	-12.7172
AGE	-12.7172
Paging	-12.7172
Wheel	-12.7175
serializable	-12.7175
chip	-12.7176
Reporting	-12.718
Sinks	-12.7182
lets	-12.7182
symmetric	-12.7183
Refactoring	-12.7184
Passed	-12.7185
hq	-12.7185
subtitle	-12.7186
rak	-12.719
fabricmc	-12.7191
School	-12.7193
Drawer	-12.7196
poc	-12.7198
cad	-12.7198
Culture	-12.7202
################################################################	-12.7203
Behaviour	-12.7206
mismatch	-12.721
getEvent	-12.7211
soon	-12.7211
POWER	-12.7213
样	-12.7215
getInfo	-12.7217
removing	-12.7218
DIM	-12.7218
React	-12.7219
TestResult	-12.722
regularizer	-12.7223
Imp	-12.7223
PriorityQueue	-12.7224
svn	-12.7226
Protobuf	-12.723
Hours	-12.7231
ClientConfig	-12.7231
StringReader	-12.7234
xmin	-12.7234
CONSTANT	-12.7235
Ignored	-12.7235
parentId	-12.7235
TestSupport	-12.7239
Shuffle	-12.7239
posX	-12.7239
rtol	-12.724
Stamp	-12.724
aff	-12.724
Propagation	-12.7241
NoSuch	-12.7242
页面	-12.7243
finding	-12.7243
Therefore	-12.7246
Both	-12.7247
beanName	-12.725
courses	-12.7251
PYTHON	-12.7252
apollo	-12.7254
FTP	-12.7256
TESTCASE	-12.7256
元	-12.7257
HOUR	-12.7259
getD	-12.7259
wen	-12.7263
subdir	-12.7265
developed	-12.7265
numerator	-12.7265
NMS	-12.7268
byteBuffer	-12.727
das	-12.7271
saver	-12.7272
效	-12.7272
STACK	-12.7272
rq	-12.7274
asgi	-12.7276
ark	-12.7276
ResourceId	-12.7276
$;	-12.7278
followed	-12.7279
telemetry	-12.728
CommandHandler	-12.728
Lu	-12.728
两个	-12.7282
JsonGenerator	-12.7282
bz	-12.7284
Ssh	-12.7284
overview	-12.7285
periods	-12.7285
三	-12.7285
wildfly	-12.7286
Scaling	-12.7286
BIG	-12.7287
nest	-12.7288
expanduser	-12.7291
DataInput	-12.7291
GONE	-12.7292
<>("	-12.7296
bson	-12.7296
iu	-12.7296
hyracks	-12.7299
ThreadFactory	-12.7299
exported	-12.7303
Scripts	-12.7304
sIn	-12.7306
建	-12.7308
注	-12.7311
gps	-12.7315
dynamically	-12.7315
getRight	-12.7316
Survey	-12.7317
plaintext	-12.7321
getNamespace	-12.7321
**************************************************	-12.7321
ible	-12.7322
SHIFT	-12.7322
Retrieves	-12.7324
HBase	-12.7324
applying	-12.7326
Slow	-12.7328
Hop	-12.7328
expose	-12.7329
Permanent	-12.7331
Dex	-12.7332
ingredient	-12.7332
contributions	-12.7333
colored	-12.7333
Cd	-12.7334
sofa	-12.7336
createQuery	-12.7336
HW	-12.7337
Requirements	-12.7338
AbstractTest	-12.7338
xls	-12.7339
getB	-12.7339
Commerce	-12.7341
walker	-12.7342
localName	-12.7344
consumed	-12.7345
tst	-12.7346
createdAt	-12.7346
Combined	-12.7346
Pa	-12.7349
Unmarshaller	-12.7351
ADDR	-12.7354
encountered	-12.7354
由	-12.7354
BORDER	-12.7358
Bearer	-12.7359
FO	-12.7359
JA	-12.7361
Ka	-12.7361
ated	-12.7365
换	-12.7365
hz	-12.7365
Couldn	-12.7369
stopping	-12.7369
TextArea	-12.737
PN	-12.7371
Dsl	-12.7372
Scheduling	-12.7374
FM	-12.7376
sharing	-12.7376
asc	-12.7377
addElement	-12.7379
云	-12.7381
getEmail	-12.7383
Generates	-12.7384
nose	-12.7387
containment	-12.7389
lease	-12.7393
Crawler	-12.7394
TableId	-12.7395
Exercise	-12.7397
IMPORT	-12.7397
getExpression	-12.74
airflow	-12.7402
fib	-12.7404
remark	-12.7405
Hosts	-12.7407
getFileName	-12.7409
字符	-12.741
Hz	-12.7411
monkey	-12.7412
jan	-12.7414
Incoming	-12.7415
Learner	-12.7415
)+"	-12.7416
absent	-12.7419
DataTypes	-12.742
develop	-12.7421
树	-12.7422
STANDARD	-12.7422
RAM	-12.7424
Four	-12.7426
Er	-12.7428
Buy	-12.7428
RouteBuilder	-12.743
LI	-12.7431
cdk	-12.7433
Gender	-12.7434
Consent	-12.7437
BUS	-12.7437
FieldValue	-12.7439
publicKey	-12.7442
再	-12.7443
Determine	-12.7444
leap	-12.7445
BM	-12.7446
communicate	-12.7447
XmlSchemaType	-12.7447
bandwidth	-12.7448
reservation	-12.7448
english	-12.7448
resteasy	-12.7449
BadSink	-12.7451
OffsetDateTime	-12.7451
Compressed	-12.7451
parquet	-12.7452
roc	-12.7453
Mojo	-12.7454
Globals	-12.7456
nw	-12.7458
telephony	-12.7459
utt	-12.7461
computing	-12.7463
mh	-12.7464
IProject	-12.7466
EDGE	-12.7466
scoring	-12.7467
Suggestion	-12.7468
stress	-12.7469
mana	-12.747
Registrar	-12.7471
ClientFactory	-12.7471
Flash	-12.7474
ObjectNode	-12.7476
例	-12.7476
pca	-12.7477
FXML	-12.7478
MongoDB	-12.748
Deferred	-12.7481
efficient	-12.7483
traits	-12.7483
Bluetooth	-12.7483
Navigator	-12.7484
('.')	-12.7485
mapreduce	-12.7487
Deposit	-12.7489
Vanilla	-12.749
Fly	-12.749
mediaType	-12.7493
Have	-12.7494
ColumnName	-12.7496
规则	-12.7497
csr	-12.7499
springfox	-12.7499
concretes	-12.75
Huawei	-12.7502
也	-12.7503
nik	-12.7503
目录	-12.7504
ClassPath	-12.7504
EntityLivingBase	-12.7509
plat	-12.7509
Mysql	-12.7512
Ns	-12.7514
Ban	-12.7515
parseFrom	-12.7518
tum	-12.7519
NoSuchMethodException	-12.752
Weak	-12.752
upsample	-12.7521
lineNumber	-12.7521
Divide	-12.7521
Ed	-12.7526
ObjectIdentifier	-12.7526
emptyMap	-12.7528
dct	-12.753
DataOutputStream	-12.753
surf	-12.7531
ETH	-12.7532
PATCH	-12.7534
onemu	-12.7536
getLine	-12.7536
不能	-12.7537
thus	-12.7537
COCO	-12.754
serving	-12.7544
ReturnType	-12.7545
BTC	-12.7546
=====================	-12.7547
ika	-12.7547
Distinct	-12.7548
LF	-12.755
keepdim	-12.7552
quat	-12.7553
EXAMPLE	-12.7554
optimal	-12.7556
CLOUD	-12.7556
bluetooth	-12.7557
dataflow	-12.7557
UML	-12.7562
diagnostic	-12.7562
USAGE	-12.7564
viewport	-12.7565
addLast	-12.7566
AO	-12.7566
boa	-12.7567
AcsResponse	-12.7567
classify	-12.7568
PIN	-12.757
Complexity	-12.7571
Blank	-12.7571
fromValue	-12.7573
]")	-12.7574
TokenType	-12.7574
exposes	-12.7579
LogEntry	-12.758
ano	-12.7584
INFINITY	-12.7584
Talend	-12.7584
件	-12.7586
minimize	-12.7587
blend	-12.7588
Upper	-12.7589
messenger	-12.7589
knn	-12.759
toMap	-12.7593
Prototype	-12.7594
purge	-12.7595
ENUM	-12.7598
occ	-12.7601
ious	-12.7602
getTransaction	-12.7603
Partitions	-12.7604
radians	-12.7608
cycles	-12.761
sAnd	-12.761
ш	-12.7611
Heartbeat	-12.7611
******************************	-12.7611
addTest	-12.7612
DataOutput	-12.7615
fed	-12.7616
Legal	-12.7616
smiles	-12.7616
opacity	-12.7616
BeanFactory	-12.7618
我	-12.762
incident	-12.762
expiry	-12.7621
deviceId	-12.7621
animate	-12.7627
morph	-12.7627
projectName	-12.7631
Wildcard	-12.7631
confusion	-12.7635
ObjectOutputStream	-12.7636
Rgaa	-12.764
Att	-12.7641
Budget	-12.7642
JavaType	-12.7644
pageable	-12.7645
RD	-12.7645
"").	-12.7647
badge	-12.7647
recon	-12.7648
determined	-12.7649
rooms	-12.7651
-----------	-12.7653
Validated	-12.7653
vd	-12.7653
MPI	-12.7653
Cls	-12.7654
orElseThrow	-12.7656
Modal	-12.7657
storing	-12.7658
"_"	-12.766
DoesNotExist	-12.7661
plant	-12.7662
Buff	-12.7663
Scopes	-12.7663
TK	-12.7664
BroadcastReceiver	-12.7664
(?:	-12.767
logback	-12.7672
imm	-12.7674
tra	-12.7674
CAS	-12.7675
entirely	-12.7675
powered	-12.7675
Foreground	-12.7678
retrieval	-12.7678
CRS	-12.7679
AsyncTask	-12.7679
ignoreUnknown	-12.768
LESS	-12.7681
nacos	-12.7682
ww	-12.7683
Solid	-12.7686
held	-12.769
CallBack	-12.7691
impact	-12.7693
rotated	-12.7694
repair	-12.7694
measurements	-12.7694
hv	-12.7695
Needed	-12.7696
SIGN	-12.7697
HTTPS	-12.7698
REDIS	-12.7698
Axes	-12.7698
Migrate	-12.7699
COMPLETE	-12.7699
United	-12.77
retVal	-12.77
验证	-12.7701
cmdline	-12.7704
notices	-12.7705
]})	-12.7708
Refs	-12.771
对应的	-12.771
Ds	-12.7712
Hadoop	-12.7715
ranks	-12.7715
dj	-12.7716
imageView	-12.7719
sso	-12.772
Rewrite	-12.772
])]	-12.7721
!!!	-12.7723
identical	-12.7724
匹配	-12.7726
SubscribeEvent	-12.7727
maxSize	-12.7729
YELLOW	-12.773
ASM	-12.773
sFrom	-12.773
MEMORY	-12.7731
uploaded	-12.7732
REQ	-12.7733
Statements	-12.7736
addParameter	-12.7736
dragon	-12.7737
explanation	-12.7738
PUSH	-12.7739
Ram	-12.774
teardown	-12.7743
defStyleAttr	-12.7744
trials	-12.7745
整	-12.7747
und	-12.7748
licence	-12.7748
---------	-12.7748
illegal	-12.7749
glide	-12.7751
plate	-12.7755
periodic	-12.7755
election	-12.7756
fout	-12.7756
Inheritance	-12.7759
toJSONString	-12.7759
接	-12.776
meet	-12.7762
competition	-12.7763
ComponentName	-12.7764
ietf	-12.7765
SETTING	-12.7766
Covered	-12.7766
cors	-12.7767
把	-12.777
Trim	-12.777
Bytecode	-12.7772
CORE	-12.7772
lua	-12.7774
Writes	-12.7774
constructed	-12.7775
UseCase	-12.7776
SEC	-12.7777
维	-12.7779
Plant	-12.7779
resourceType	-12.778
consent	-12.7784
Tank	-12.7786
NOTIFICATION	-12.7788
getReference	-12.7791
smallrye	-12.7794
Nexus	-12.7794
modelio	-12.7797
identified	-12.7798
lay	-12.7798
ó	-12.7798
traces	-12.78
likely	-12.78
Ba	-12.78
Ledger	-12.7802
batfish	-12.7803
Pen	-12.7803
assignments	-12.7804
rod	-12.7805
dream	-12.7805
timeseries	-12.7808
Triangle	-12.7813
ymin	-12.7814
OD	-12.7815
mkdirs	-12.7818
simplify	-12.7818
gear	-12.782
库	-12.782
getTest	-12.7822
complexity	-12.7824
iOS	-12.7825
Works	-12.7829
alerts	-12.7829
robo	-12.7831
客户端	-12.7831
BT	-12.7834
Bullet	-12.7835
gml	-12.7836
[]),	-12.7836
VC	-12.7836
EndPoint	-12.7837
Multimap	-12.7839
Temporary	-12.7839
Multipart	-12.7839
inherited	-12.784
ZONE	-12.7842
utcnow	-12.7842
'_'	-12.7845
>*//*</	-12.7845
vk	-12.7849
wy	-12.7849
covariance	-12.7851
Slave	-12.7851
ManyToOne	-12.7853
复	-12.7855
localization	-12.7858
或者	-12.7859
Wind	-12.786
ServerConfig	-12.7861
North	-12.7863
sdc	-12.7863
backwards	-12.7864
sur	-12.7864
Fi	-12.7867
REPLACE	-12.7868
每个	-12.7869
Levels	-12.7872
decorated	-12.7875
)})	-12.7875
spacy	-12.7876
bal	-12.7876
'{}	-12.7878
EXIT	-12.7878
bigquery	-12.7879
varchar	-12.7879
mojo	-12.7882
grey	-12.7884
Yahoo	-12.7886
growth	-12.7886
posY	-12.7887
Domains	-12.7887
TREE	-12.7887
filt	-12.7888
encoders	-12.7888
JAR	-12.7888
getContainer	-12.7889
getIs	-12.7891
addHeader	-12.7892
"../	-12.7893
ALIGN	-12.7893
DV	-12.7893
Working	-12.7897
VMware	-12.7899
sex	-12.79
gbc	-12.7901
ж	-12.7902
animal	-12.7903
mut	-12.7904
Spin	-12.7904
做	-12.7906
``,	-12.7907
picking	-12.7908
eventbus	-12.7908
Looper	-12.7911
statuses	-12.7915
Datatype	-12.7918
devel	-12.7921
Crash	-12.7921
forever	-12.7923
jaxrs	-12.7925
자	-12.7925
Deque	-12.7925
installer	-12.7925
SessionFactory	-12.7925
Hack	-12.7926
ravel	-12.7926
Stores	-12.7928
approval	-12.7929
mis	-12.7929
pep	-12.793
Perf	-12.793
favorite	-12.7932
transit	-12.7934
ю	-12.7934
oa	-12.7934
authenticator	-12.7936
Preprocessor	-12.7937
nonNull	-12.7937
更	-12.794
tur	-12.7943
UT	-12.7947
caught	-12.7947
Successfully	-12.7947
seeds	-12.7948
gef	-12.795
sWith	-12.7951
Formatting	-12.7952
fetcher	-12.7953
编号	-12.7953
ethereum	-12.7954
MAPPER	-12.7955
isSuccess	-12.7956
hutool	-12.7956
qubits	-12.7957
termination	-12.7959
mute	-12.796
typeCreated	-12.796
FINISHED	-12.7962
mz	-12.7964
Intersection	-12.7965
JADX	-12.7966
boundaries	-12.7966
gis	-12.7968
ylim	-12.7976
students	-12.7977
perl	-12.7978
Gain	-12.7978
yx	-12.7979
nth	-12.798
fwd	-12.798
zynamics	-12.7983
PREF	-12.7985
regardless	-12.7985
为空	-12.7986
ih	-12.7986
tagger	-12.7987
succeeded	-12.7987
incremental	-12.7987
")";	-12.799
getPackage	-12.7992
MV	-12.7992
town	-12.7993
overlaps	-12.7993
AZURE	-12.7994
miner	-12.7994
dimensional	-12.7995
yz	-12.7997
音	-12.7998
compiere	-12.8001
SMTP	-12.8003
HttpServer	-12.8003
(""))	-12.8005
directions	-12.8006
Latch	-12.8007
rus	-12.8008
getE	-12.8008
payments	-12.8008
faker	-12.8008
ong	-12.801
removal	-12.8011
anyString	-12.8011
ActionBar	-12.8012
HarnessTeam	-12.8014
JP	-12.8014
getRequestId	-12.8015
ami	-12.8015
Contacts	-12.8015
####	-12.8015
geometric	-12.8018
Calling	-12.8018
peers	-12.8018
older	-12.8019
BindView	-12.8019
descriptions	-12.802
Ask	-12.802
jsonify	-12.8021
Flip	-12.8022
Structured	-12.8022
htm	-12.8025
makeText	-12.8026
SessionId	-12.8026
LongTensor	-12.8027
Perspective	-12.8028
PROGRESS	-12.8028
downloads	-12.8029
PRIME	-12.803
Legend	-12.8031
Bounded	-12.8031
JsonFormat	-12.8033
fab	-12.8036
generates	-12.8037
Was	-12.8037
TransactionManager	-12.8037
TypeConverter	-12.8038
но	-12.804
Predict	-12.804
fair	-12.804
Faces	-12.804
downstream	-12.8041
contextmanager	-12.8042
embeds	-12.8044
wandb	-12.8045
Bob	-12.8046
oapp	-12.805
Consts	-12.8051
countries	-12.8052
buffered	-12.8052
huang	-12.8053
Installation	-12.8054
screens	-12.8057
publication	-12.8058
prune	-12.8059
!!	-12.8061
checkerframework	-12.8062
Sip	-12.8062
refine	-12.8064
writeObject	-12.8065
springcloud	-12.8065
feng	-12.8068
CHAT	-12.8068
CU	-12.807
spotify	-12.8072
Every	-12.8073
meeting	-12.8074
respond	-12.8075
POSITIVE	-12.8082
dismiss	-12.8082
RadioButton	-12.8082
MOCK	-12.8083
suitable	-12.8084
变量	-12.8085
apm	-12.8087
pubsub	-12.8087
uhn	-12.8088
gravity	-12.809
SCAN	-12.8091
mnt	-12.8091
hybrid	-12.8091
/";	-12.8092
EB	-12.8094
Sw	-12.8094
dtypes	-12.8098
Cond	-12.8099
gemfire	-12.81
unity	-12.8102
weapon	-12.8103
Pic	-12.8103
timestep	-12.8103
INTER	-12.8104
movies	-12.8106
з	-12.8107
WebClient	-12.8107
setLabel	-12.811
Ent	-12.8113
splitter	-12.8113
pooled	-12.8115
unlink	-12.8116
MODID	-12.8118
depend	-12.8118
aion	-12.8119
支付	-12.812
replicas	-12.812
pax	-12.8121
比	-12.8121
秒	-12.8122
GENERIC	-12.8123
配	-12.8125
ica	-12.8129
Clipboard	-12.8133
Allocator	-12.8133
FOO	-12.8134
orcid	-12.8134
Ball	-12.8134
Ipv	-12.8136
HAND	-12.8136
CHANGED	-12.8138
Even	-12.8139
CHAIN	-12.8144
testcasesupport	-12.8144
PLAY	-12.8145
BOOL	-12.8145
VT	-12.8148
SNAPSHOT	-12.8148
关闭	-12.8148
기	-12.8148
Tex	-12.8151
localized	-12.8152
)},	-12.8153
Painter	-12.8154
validity	-12.8156
Decompiled	-12.8156
ContentProvider	-12.8158
EU	-12.8159
Applications	-12.8159
tencentcloudapi	-12.8161
sinks	-12.8162
readers	-12.8165
Contest	-12.8167
Hints	-12.8168
valueObject	-12.817
nombre	-12.817
Are	-12.8172
EasyMock	-12.8172
writable	-12.8174
MX	-12.8174
ven	-12.8175
UE	-12.8179
taktik	-12.8179
brief	-12.8183
fsm	-12.8185
setVersion	-12.8186
BOLD	-12.8188
程序	-12.8189
"%(	-12.8189
recorded	-12.819
potion	-12.819
mir	-12.8194
Targeted	-12.8195
Remaining	-12.8195
focal	-12.8196
StreamHandler	-12.8196
rat	-12.8197
ToBe	-12.8198
areas	-12.8198
xm	-12.8199
optimized	-12.8199
restricted	-12.8202
LinearTrend	-12.8202
Gu	-12.8203
JsonSerializer	-12.8204
关	-12.8204
observe	-12.8204
googleapis	-12.8206
可能	-12.8207
zones	-12.8207
Badge	-12.8208
owlapi	-12.8209
birth	-12.8209
arena	-12.8209
Rot	-12.8212
informatik	-12.8212
recyclerView	-12.8212
SUM	-12.8214
项	-12.8217
Privacy	-12.8218
IDS	-12.8218
ChangedEvent	-12.8219
prepareStatement	-12.8219
式	-12.822
fds	-12.822
Favorite	-12.822
Ansible	-12.822
Boost	-12.8222
Symbols	-12.8223
qp	-12.8224
adempiere	-12.8227
ConfigParser	-12.8227
jk	-12.8233
IFile	-12.8234
EQUAL	-12.8235
errorMsg	-12.8236
NR	-12.8237
BeanDefinition	-12.824
however	-12.8241
drawn	-12.8243
adaptive	-12.8243
>}'	-12.8245
certs	-12.8245
playerId	-12.8245
consol	-12.8246
Pk	-12.8246
getCategory	-12.8246
Microsystems	-12.8247
wan	-12.8248
Claims	-12.8251
ViewPager	-12.8252
toml	-12.8252
XP	-12.8254
getPos	-12.8257
ServerSocket	-12.826
targetType	-12.8261
NORTH	-12.8261
Groovy	-12.8263
目标	-12.8264
packaging	-12.8266
Rarity	-12.8266
lev	-12.8269
cha	-12.827
VirtualMachine	-12.8272
OwnerId	-12.8272
Emoji	-12.8273
setSource	-12.8275
Intermediate	-12.8276
WHEN	-12.8277
moveTo	-12.8278
HK	-12.828
neu	-12.828
Hover	-12.8281
cdp	-12.8282
Computes	-12.8283
Talk	-12.8286
NI	-12.8286
trunk	-12.8288
hypothesis	-12.8289
setOn	-12.8292
tam	-12.8298
Topics	-12.83
seqs	-12.83
kms	-12.8303
'$	-12.8305
getSubject	-12.8308
Endpoints	-12.8308
Disconnect	-12.8308
friends	-12.831
LabelProvider	-12.831
示例	-12.8311
/?	-12.8312
scoped	-12.8314
还	-12.8315
ACT	-12.8318
findbugs	-12.8318
XmlBeans	-12.8319
Natural	-12.8319
NM	-12.8319
Iterate	-12.8322
Sending	-12.8322
菜单	-12.8324
Mandatory	-12.8324
Formats	-12.8325
schedules	-12.8325
?"	-12.833
Blur	-12.8335
skills	-12.8339
oz	-12.8341
judge	-12.8344
boy	-12.8344
Reika	-12.8345
apiKey	-12.8345
我们	-12.8346
fence	-12.8347
EXPORT	-12.8348
OBJ	-12.8349
IpAddress	-12.8349
radar	-12.8349
lic	-12.835
Inspection	-12.835
getMinecraft	-12.8351
gtk	-12.8351
ier	-12.8352
Eye	-12.8354
terraform	-12.8355
rar	-12.8356
PySide	-12.8357
选择	-12.8358
ConstantTrend	-12.8358
DataManager	-12.8358
circular	-12.8362
hom	-12.8362
yangtools	-12.8363
Contribution	-12.8364
uz	-12.8365
wood	-12.8367
binance	-12.8367
algebra	-12.8367
greeting	-12.8369
Matthew	-12.837
BaseResponse	-12.837
DFS	-12.8371
umd	-12.8373
Counters	-12.8377
Accumulator	-12.8377
aria	-12.8378
Pure	-12.8379
yc	-12.838
getAccount	-12.8382
Species	-12.8383
hole	-12.8386
-$$	-12.8386
它	-12.8387
mIs	-12.8387
Meeting	-12.8388
Combine	-12.8388
vers	-12.8389
Mag	-12.8389
smoothing	-12.839
navercorp	-12.8391
Tmp	-12.8392
operands	-12.8395
全	-12.8396
kar	-12.8397
Activities	-12.8397
NEXT	-12.8398
wk	-12.8398
IProgressMonitor	-12.8399
forces	-12.8399
npz	-12.8399
blah	-12.84
newly	-12.8407
Zen	-12.8407
shards	-12.8408
avi	-12.8408
Isilon	-12.8409
提供	-12.8411
abcd	-12.8411
prestosql	-12.8415
IX	-12.8415
scout	-12.8416
WM	-12.8417
pulsar	-12.8417
getApp	-12.8417
Estimate	-12.8418
pump	-12.8419
twice	-12.8419
TypeAdapter	-12.8419
---------------	-12.842
MYSQL	-12.8422
遍历	-12.8426
已经	-12.8426
writeByte	-12.8427
salesforce	-12.8427
booking	-12.8428
GAME	-12.8429
imageio	-12.843
CrossEntropyLoss	-12.843
Bond	-12.843
technology	-12.8432
PolyTrend	-12.8434
south	-12.8434
getA	-12.8438
PostgreSQL	-12.844
dlg	-12.844
RefMan	-12.8441
unary	-12.8441
MovingMedian	-12.8442
Pid	-12.8442
像	-12.8442
normally	-12.8443
à	-12.8444
firmware	-12.8446
normalizer	-12.8447
IAM	-12.8448
printed	-12.8448
ics	-12.8449
fuzzy	-12.8451
스	-12.8452
edited	-12.8453
SPEED	-12.8454
?\	-12.8455
interrupted	-12.8455
Categorical	-12.8456
し	-12.8456
DATETIME	-12.8458
photos	-12.8458
Episode	-12.8459
cdf	-12.8459
REPO	-12.8462
Canonical	-12.8463
ParamSimple	-12.8463
getOutputStream	-12.8464
SysUser	-12.8466
maintains	-12.8467
Specs	-12.8468
nds	-12.8469
学	-12.847
ApplicationTest	-12.8471
alink	-12.8472
Writing	-12.8472
updateTime	-12.8472
ABCMeta	-12.8474
jq	-12.8475
composition	-12.8475
batchSize	-12.8475
VGG	-12.8475
Fork	-12.8476
Offsets	-12.8476
JC	-12.8479
XOWA	-12.8486
spinner	-12.8486
Edm	-12.8487
USERS	-12.8488
权	-12.8488
Ports	-12.849
matter	-12.8493
ified	-12.8493
incrementAndGet	-12.8494
quantum	-12.8495
即	-12.8495
Whitespace	-12.8496
CacheKey	-12.85
交	-12.85
VersionMeta	-12.8501
dynamics	-12.8503
Flatten	-12.8504
Road	-12.8505
getArguments	-12.8508
COLLECTION	-12.8512
toBytes	-12.8513
不存在	-12.8515
字典	-12.8516
EXPR	-12.8516
serde	-12.8519
PENDING	-12.852
monster	-12.8521
itemis	-12.8522
AlipayObject	-12.8524
mux	-12.8524
tomcat	-12.8527
getUri	-12.8527
Nu	-12.8528
分类	-12.8532
shrinkwrap	-12.8533
violations	-12.8536
Eth	-12.8537
csp	-12.8537
Grade	-12.8539
guide	-12.8542
guice	-12.8542
managing	-12.8546
TestContext	-12.8546
Em	-12.8547
Cisco	-12.8548
rack	-12.8549
pager	-12.8549
Buffered	-12.855
trg	-12.8552
setInt	-12.8553
Expect	-12.8554
checkstyle	-12.8554
extensionRegistry	-12.8554
firewall	-12.8557
instantiation	-12.8557
approach	-12.8558
rxjava	-12.8558
TTL	-12.8559
Localization	-12.8562
tty	-12.8563
COMPLETED	-12.8564
readByte	-12.8564
getLanguage	-12.8564
Thomas	-12.8565
LIBRARY	-12.8565
secretKey	-12.8566
submissions	-12.8569
fuzz	-12.8569
configurable	-12.8569
registries	-12.8569
infinite	-12.8571
nasa	-12.8572
确	-12.8573
装	-12.8574
CRC	-12.8574
outdir	-12.8575
Saving	-12.8575
lru	-12.8575
\",\	-12.8575
Beam	-12.8576
Race	-12.8576
othervm	-12.8577
Pseudo	-12.8582
advice	-12.8582
DecimalFormat	-12.8583
Thumbnail	-12.8584
WSDL	-12.8588
setTime	-12.8589
Interactive	-12.8591
群	-12.8593
运行	-12.8594
Alex	-12.8596
UserGroup	-12.8596
Pitch	-12.8597
する	-12.86
fatal	-12.86
Vk	-12.8603
Expansion	-12.8604
sharding	-12.8605
SUPPORT	-12.8607
完	-12.8607
Attribution	-12.8608
INVOKE	-12.8609
Recent	-12.861
getFilter	-12.8611
stacks	-12.8612
rent	-12.8613
模块	-12.8613
didn	-12.8614
REGISTER	-12.8615
JPEG	-12.8617
Paul	-12.8618
playing	-12.8621
Breakpoint	-12.8622
rolling	-12.8623
ambiguous	-12.8624
pwn	-12.8624
EAST	-12.8626
ditto	-12.8627
调	-12.8627
containsString	-12.8628
UM	-12.8628
NU	-12.8628
下载	-12.8628
Andrea	-12.863
OPTIONAL	-12.8631
hms	-12.8632
love	-12.8634
ParameterizedType	-12.8636
Delayed	-12.864
SERIALIZER	-12.8641
Greeting	-12.8641
Versioned	-12.8641
推	-12.8642
retention	-12.8642
Maintenance	-12.8649
GIT	-12.8651
panels	-12.8652
Cols	-12.8654
cats	-12.8655
gcd	-12.8656
ended	-12.8657
唯一请求	-12.8658
getPayload	-12.8658
relationships	-12.8659
snow	-12.866
miss	-12.8661
Heat	-12.8661
BST	-12.8661
每次请求都会	-12.8664
hang	-12.8664
ymax	-12.8664
SSLContext	-12.8665
shouldn	-12.8666
FACTOR	-12.8666
ActionForm	-12.8668
Sat	-12.867
Mol	-12.8671
定位问题时需要提供该次请求的	-12.8672
tower	-12.8673
getInteger	-12.8674
ctxt	-12.8676
Spacing	-12.8679
snmp	-12.8683
gin	-12.8685
shallow	-12.8687
Require	-12.8688
Spy	-12.8688
CERT	-12.8688
dnn	-12.869
getHandle	-12.8694
改	-12.8696
RETRY	-12.8697
续	-12.8698
检查	-12.8698
intel	-12.8701
Discriminator	-12.8703
bilinear	-12.8707
ByVal	-12.8708
looks	-12.8709
setLocation	-12.871
LogEvent	-12.8712
OO	-12.8712
*******************	-12.8713
gar	-12.8714
interactions	-12.8714
getById	-12.8716
Skeleton	-12.8717
SortedSet	-12.8721
indented	-12.8722
Ra	-12.8726
amt	-12.8726
inplanes	-12.8729
decorate	-12.8729
QLabel	-12.8729
currentTime	-12.873
customerId	-12.873
Watermark	-12.8731
Aug	-12.8731
shrink	-12.8731
notation	-12.8731
causeway	-12.8732
mad	-12.8732
Alternative	-12.8735
Arch	-12.8736
enchantment	-12.8738
rig	-12.8738
Ticker	-12.8739
METRIC	-12.874
ratings	-12.8741
getContextType	-12.8742
happy	-12.8743
语	-12.8745
autodoc	-12.8746
参	-12.8747
Containers	-12.8749
Else	-12.875
science	-12.875
databinding	-12.875
linkplain	-12.8751
restrictions	-12.8751
DDL	-12.8752
jei	-12.8752
interpret	-12.8752
Cp	-12.8753
PlayerEntity	-12.8753
ffmpeg	-12.8755
kube	-12.8757
Abort	-12.876
blender	-12.8761
getOptions	-12.8761
tro	-12.8763
DECIMAL	-12.8763
OA	-12.8764
sonatype	-12.8765
ToStringStyle	-12.8766
Stone	-12.8766
FHIR	-12.8767
cloudfoundry	-12.8769
sweep	-12.8769
网络	-12.8773
LETTER	-12.8773
WORLD	-12.8773
clusterId	-12.8776
ivar	-12.8777
CONNECT	-12.8779
LIKE	-12.8781
MockitoJUnitRunner	-12.8782
getInventory	-12.8783
xmax	-12.8783
Wi	-12.8783
Alloc	-12.8784
ender	-12.8784
Provisioning	-12.8785
compartment	-12.8788
"{}	-12.8791
acs	-12.8791
="")	-12.8791
assertIsNone	-12.8791
Cam	-12.8793
(...)	-12.8793
Proof	-12.8795
Apereo	-12.8796
VoCollection	-12.8796
structured	-12.8799
Bid	-12.8801
isVisible	-12.8801
Timed	-12.8801
WF	-12.8802
ish	-12.8803
EntityId	-12.8803
tagName	-12.8805
RN	-12.8805
Datum	-12.8808
noisy	-12.8809
NLP	-12.881
barrier	-12.881
DeprecationWarning	-12.8812
的数据	-12.8815
setContext	-12.8816
文本	-12.8817
mmcv	-12.8817
Sorter	-12.8817
ITEMS	-12.8817
testsuite	-12.8817
MaxPool	-12.8818
LB	-12.8818
ModelElement	-12.8819
MAIL	-12.882
datastax	-12.8822
FromFile	-12.8823
maxLength	-12.8823
ALIAS	-12.8823
`")	-12.8824
UK	-12.8825
jda	-12.8825
="+	-12.8825
deviation	-12.8827
Walker	-12.8827
regarded	-12.8827
spectral	-12.8829
lane	-12.8829
BACKEND	-12.8829
BEFORE	-12.8831
assumed	-12.8831
webank	-12.8832
blk	-12.8833
getIn	-12.8834
yun	-12.8835
glue	-12.8838
UPLOAD	-12.8842
Appointment	-12.8843
Refer	-12.8843
transcript	-12.8843
Nuts	-12.8846
months	-12.8846
Decoration	-12.8847
getAmount	-12.8847
))));	-12.8847
superuser	-12.8848
angular	-12.8849
owners	-12.8849
PageSize	-12.885
batched	-12.885
Perm	-12.8855
deferred	-12.8856
Mission	-12.8856
comparing	-12.8857
PackageName	-12.8858
pms	-12.886
Stateless	-12.886
woowacourse	-12.8862
equation	-12.8862
psd	-12.8863
MASTER	-12.8863
unet	-12.8865
concepts	-12.8866
Serde	-12.8866
AccountId	-12.8866
Compatible	-12.8867
LO	-12.8869
polar	-12.8869
allocator	-12.8871
rmf	-12.8871
Builds	-12.8874
Emp	-12.8877
cardinality	-12.8878
gx	-12.8879
vb	-12.8881
alex	-12.8884
Guest	-12.8884
escaped	-12.8885
docx	-12.8885
Vision	-12.8888
QWidget	-12.8891
tracked	-12.8892
SEED	-12.8892
相关	-12.8896
entered	-12.8896
izing	-12.8896
dateFormat	-12.8897
(".")	-12.8897
Minutes	-12.8899
Tutorial	-12.8899
Lease	-12.8902
getOrCreate	-12.8905
cisco	-12.8905
DONE	-12.8907
GRAPH	-12.8907
pct	-12.8909
MEMBER	-12.891
insets	-12.8911
employees	-12.8912
fruit	-12.8913
("^	-12.8914
wn	-12.8914
Ct	-12.8914
SOUTH	-12.8916
Below	-12.8918
percentile	-12.8923
Concat	-12.8926
StackTrace	-12.8928
injected	-12.8928
WEST	-12.8929
rebuild	-12.893
上传	-12.8932
causes	-12.8933
ities	-12.8936
Semaphore	-12.8938
Computation	-12.894
CHUNK	-12.8942
maxValue	-12.8942
Hero	-12.8944
getTemplate	-12.8946
stm	-12.8946
gitlab	-12.8948
isChecked	-12.8949
}:{	-12.895
Fisher	-12.8952
setBorder	-12.8952
yuan	-12.8954
Ku	-12.8954
confluent	-12.8955
Obs	-12.8957
UL	-12.8957
landmarks	-12.8958
pools	-12.8959
getExtension	-12.896
Cells	-12.896
DH	-12.8962
jackrabbit	-12.8963
PERIOD	-12.8964
consists	-12.8964
bolt	-12.8965
ply	-12.8966
integrations	-12.8966
Tabs	-12.8968
sheets	-12.8969
fieldType	-12.8974
taking	-12.8974
ZIP	-12.8975
Am	-12.8975
drone	-12.8975
Ascii	-12.8977
International	-12.898
adjusted	-12.8981
lista	-12.8982
FrameLayout	-12.8982
Mad	-12.8983
Bolt	-12.8983
Constructors	-12.8989
TypeToken	-12.899
evidence	-12.899
(',')	-12.8991
getEntry	-12.8992
chooser	-12.8993
cum	-12.8993
mView	-12.8997
rip	-12.8997
OrNull	-12.8999
IOS	-12.9
scorer	-12.9
deleting	-12.9001
>`_	-12.9001
Overwrite	-12.9004
AttributeType	-12.9005
ratios	-12.9006
IES	-12.9006
terminated	-12.9007
WEIGHT	-12.9007
Strength	-12.9013
QueryResponse	-12.9015
Issues	-12.9017
pig	-12.9017
inputFile	-12.9017
RequestType	-12.9018
MessageListener	-12.9018
Standalone	-12.9019
mediator	-12.9023
INET	-12.9023
Latency	-12.9024
adjacent	-12.9024
PH	-12.9025
Installed	-12.9026
scripting	-12.9028
ay	-12.9032
TRACK	-12.9033
Unary	-12.9034
USB	-12.9036
UserData	-12.9037
Dest	-12.9037
NonNullApi	-12.904
identification	-12.904
FI	-12.9041
Stable	-12.9042
WithType	-12.9043
hexdigest	-12.9044
bmp	-12.9044
Interest	-12.9045
]+)	-12.9047
ト	-12.9051
о	-12.9051
vcs	-12.9055
onStart	-12.9055
III	-12.9056
BeforeAll	-12.9058
getF	-12.9059
Cleaner	-12.9059
delayed	-12.906
Expiration	-12.9064
ipAddress	-12.9065
collapse	-12.9065
appears	-12.9068
Forecast	-12.9068
Mel	-12.907
CommandException	-12.907
bh	-12.9071
Gas	-12.9071
prefetch	-12.9071
networking	-12.9073
FileInfo	-12.9074
不能为空	-12.9074
evolution	-12.9076
告	-12.9076
xstream	-12.9077
suggestion	-12.9078
JdbcTemplate	-12.908
cumulative	-12.908
SORT	-12.9083
setContentType	-12.9084
MultipartFile	-12.9086
XmlException	-12.9086
resized	-12.9087
issubclass	-12.9088
dhis	-12.9088
>>()	-12.9089
indicators	-12.9093
Vocabulary	-12.9093
Segmentation	-12.9097
deserialization	-12.9097
Knowledge	-12.91
activations	-12.9104
getCanonicalName	-12.9106
UNDEFINED	-12.9106
FromString	-12.9106
IdGenerator	-12.9107
REL	-12.9107
Vertices	-12.9107
INTERFACE	-12.9108
Dock	-12.9113
ken	-12.9113
DataStream	-12.9113
Safari	-12.9114
CLINICAL	-12.9116
metal	-12.9117
lsp	-12.9117
lxml	-12.9118
Arena	-12.9118
形	-12.9118
Warnings	-12.9119
fox	-12.912
ModuleList	-12.9121
getSystem	-12.9121
PrimitiveType	-12.9121
Gesture	-12.9121
organizations	-12.9122
Blocked	-12.9122
Cron	-12.9123
rop	-12.9123
校验	-12.9126
coeffs	-12.9126
PublicKeyToken	-12.9127
rsc	-12.9128
OutputFormat	-12.9128
い	-12.9131
normals	-12.9132
Normalizer	-12.9132
findElement	-12.9133
nano	-12.9133
yolo	-12.9134
Ranking	-12.9135
SocketAddress	-12.9136
maintainer	-12.9136
rag	-12.9136
isSet	-12.9139
Quantization	-12.914
리	-12.9142
Fa	-12.9146
转换	-12.9148
Sensitive	-12.9148
单位	-12.9148
changelog	-12.9155
Travel	-12.9156
bra	-12.9157
Bed	-12.9158
decrease	-12.9159
Corner	-12.9163
])[	-12.9164
beacon	-12.9164
Materials	-12.9165
Subnet	-12.9167
setPosition	-12.9167
writes	-12.9168
JsonUtils	-12.9168
measures	-12.9169
votes	-12.9175
throttle	-12.918
assertThatThrownBy	-12.918
Logout	-12.918
sosy	-12.9181
fv	-12.9182
队列	-12.9182
prefer	-12.9184
GEO	-12.9184
rik	-12.9185
Tiny	-12.9188
TXT	-12.9189
SEP	-12.9191
getRequired	-12.9191
Supports	-12.9191
ItemId	-12.9192
abstraction	-12.9192
corp	-12.9195
问题	-12.9195
IdType	-12.9195
>}</	-12.9196
optaplanner	-12.9197
generics	-12.9197
Notebook	-12.9198
gdb	-12.92
fullname	-12.9202
jm	-12.9203
eventBus	-12.9204
创建时间	-12.9205
tuxguitar	-12.9205
MNIST	-12.9206
ServiceFactory	-12.9207
Jms	-12.9208
thresholds	-12.9209
chest	-12.921
provisioning	-12.9213
StringProperty	-12.9214
Xo	-12.9215
Terrain	-12.9219
ApiKey	-12.922
PRINT	-12.922
ZipEntry	-12.9221
Determines	-12.9221
bay	-12.9224
Dragon	-12.9224
PropertyName	-12.9225
RI	-12.9226
consensus	-12.9227
fld	-12.9228
Raised	-12.9228
JsonDeserializer	-12.9228
getSignature	-12.9229
timesteps	-12.923
onNext	-12.923
AX	-12.923
TestClient	-12.923
시	-12.9233
appended	-12.9235
EnableDiscoveryClient	-12.9235
......	-12.9237
jf	-12.9238
PostProcessor	-12.9239
UA	-12.9239
就是	-12.924
kernels	-12.924
Arithmetic	-12.9241
Sale	-12.9241
Experience	-12.9241
setUrl	-12.9246
SocketChannel	-12.9247
graphene	-12.9248
所	-12.9249
Feign	-12.9249
subsystem	-12.9249
Ca	-12.925
deriv	-12.9252
tup	-12.9252
bars	-12.9254
hyperledger	-12.9254
miui	-12.9258
BaseService	-12.9259
setItem	-12.9262
webservice	-12.9263
amplitude	-12.9264
curl	-12.9269
Saver	-12.9269
ス	-12.9269
tian	-12.927
ContextMenu	-12.9271
STD	-12.9271
Forwarding	-12.9271
xpack	-12.9273
fq	-12.9273
PendingIntent	-12.9273
Publication	-12.9274
cyan	-12.9277
xz	-12.928
inspector	-12.928
cho	-12.9282
LeetCode	-12.9282
descending	-12.9283
restrict	-12.9285
JAX	-12.9288
Prod	-12.9292
で	-12.9292
INFORMATION	-12.9293
tagname	-12.9293
Qty	-12.9294
锁	-12.9295
newaxis	-12.9296
consts	-12.9302
ACCEPT	-12.9303
ultimate	-12.9303
cent	-12.9305
protect	-12.9306
型	-12.9307
getModule	-12.9308
doFilter	-12.9308
vtk	-12.9308
Geom	-12.9309
Aion	-12.931
brooklyn	-12.9312
Throws	-12.9313
inactive	-12.9313
\">	-12.9315
hashed	-12.9315
Inside	-12.9316
vstring	-12.9317
Far	-12.9317
Kt	-12.9317
ClientBuilder	-12.9319
按	-12.9319
[...]
